{
  "version": "1.0",
  "truncation": null,
  "padding": null,
  "added_tokens": [
    {
      "id": 0,
      "content": "[PAD]",
      "single_word": false,
      "lstrip": false,
      "rstrip": false,
      "normalized": false,
      "special": true
    },
    {
      "id": 1,
      "content": "[UNK]",
      "single_word": false,
      "lstrip": false,
      "rstrip": false,
      "normalized": false,
      "special": true
    },
    {
      "id": 2,
      "content": "[CLS]",
      "single_word": false,
      "lstrip": false,
      "rstrip": false,
      "normalized": false,
      "special": true
    },
    {
      "id": 3,
      "content": "[SEP]",
      "single_word": false,
      "lstrip": false,
      "rstrip": false,
      "normalized": false,
      "special": true
    },
    {
      "id": 4,
      "content": "[MASK]",
      "single_word": false,
      "lstrip": false,
      "rstrip": false,
      "normalized": false,
      "special": true
    }
  ],
  "normalizer": {
    "type": "NFKC"
  },
  "pre_tokenizer": {
    "type": "Whitespace"
  },
  "post_processor": {
    "type": "TemplateProcessing",
    "single": [
      {
        "SpecialToken": {
          "id": "[CLS]",
          "type_id": 0
        }
      },
      {
        "Sequence": {
          "id": "A",
          "type_id": 0
        }
      },
      {
        "SpecialToken": {
          "id": "[SEP]",
          "type_id": 0
        }
      }
    ],
    "pair": [
      {
        "SpecialToken": {
          "id": "[CLS]",
          "type_id": 0
        }
      },
      {
        "Sequence": {
          "id": "A",
          "type_id": 0
        }
      },
      {
        "SpecialToken": {
          "id": "[SEP]",
          "type_id": 0
        }
      },
      {
        "Sequence": {
          "id": "B",
          "type_id": 1
        }
      },
      {
        "SpecialToken": {
          "id": "[SEP]",
          "type_id": 1
        }
      }
    ],
    "special_tokens": {
      "[CLS]": {
        "id": "[CLS]",
        "ids": [
          1
        ],
        "tokens": [
          "[CLS]"
        ]
      },
      "[SEP]": {
        "id": "[SEP]",
        "ids": [
          2
        ],
        "tokens": [
          "[SEP]"
        ]
      }
    }
  },
  "decoder": null,
  "model": {
    "type": "BPE",
    "dropout": null,
    "unk_token": null,
    "continuing_subword_prefix": null,
    "end_of_word_suffix": null,
    "fuse_unk": false,
    "byte_fallback": false,
    "vocab": {
      "[PAD]": 0,
      "[UNK]": 1,
      "[CLS]": 2,
      "[SEP]": 3,
      "[MASK]": 4,
      "!": 5,
      "(": 6,
      ")": 7,
      "*": 8,
      ",": 9,
      "-": 10,
      ".": 11,
      "0": 12,
      "1": 13,
      "2": 14,
      "3": 15,
      "4": 16,
      "5": 17,
      "7": 18,
      ":": 19,
      ";": 20,
      "?": 21,
      "—": 22,
      "•": 23,
      "、": 24,
      "。": 25,
      "《": 26,
      "》": 27,
      "「": 28,
      "」": 29,
      "『": 30,
      "』": 31,
      "【": 32,
      "】": 33,
      "一": 34,
      "七": 35,
      "万": 36,
      "三": 37,
      "上": 38,
      "下": 39,
      "不": 40,
      "与": 41,
      "专": 42,
      "世": 43,
      "业": 44,
      "东": 45,
      "两": 46,
      "严": 47,
      "个": 48,
      "中": 49,
      "丰": 50,
      "临": 51,
      "丹": 52,
      "为": 53,
      "主": 54,
      "举": 55,
      "乃": 56,
      "久": 57,
      "么": 58,
      "之": 59,
      "乎": 60,
      "九": 61,
      "也": 62,
      "习": 63,
      "书": 64,
      "了": 65,
      "争": 66,
      "事": 67,
      "二": 68,
      "于": 69,
      "云": 70,
      "五": 71,
      "亚": 72,
      "些": 73,
      "亡": 74,
      "产": 75,
      "享": 76,
      "亲": 77,
      "人": 78,
      "什": 79,
      "仅": 80,
      "仆": 81,
      "今": 82,
      "从": 83,
      "他": 84,
      "仗": 85,
      "仙": 86,
      "代": 87,
      "令": 88,
      "以": 89,
      "仪": 90,
      "们": 91,
      "件": 92,
      "价": 93,
      "任": 94,
      "仿": 95,
      "伏": 96,
      "众": 97,
      "优": 98,
      "伙": 99,
      "会": 100,
      "传": 101,
      "伤": 102,
      "伴": 103,
      "似": 104,
      "但": 105,
      "位": 106,
      "低": 107,
      "住": 108,
      "体": 109,
      "何": 110,
      "佚": 111,
      "作": 112,
      "你": 113,
      "佣": 114,
      "使": 115,
      "供": 116,
      "依": 117,
      "侦": 118,
      "侧": 119,
      "侵": 120,
      "便": 121,
      "促": 122,
      "保": 123,
      "信": 124,
      "修": 125,
      "俯": 126,
      "倒": 127,
      "候": 128,
      "倚": 129,
      "值": 130,
      "做": 131,
      "停": 132,
      "储": 133,
      "像": 134,
      "充": 135,
      "兆": 136,
      "先": 137,
      "光": 138,
      "克": 139,
      "党": 140,
      "入": 141,
      "全": 142,
      "公": 143,
      "六": 144,
      "共": 145,
      "关": 146,
      "兴": 147,
      "兵": 148,
      "其": 149,
      "具": 150,
      "典": 151,
      "内": 152,
      "再": 153,
      "军": 154,
      "冰": 155,
      "冲": 156,
      "决": 157,
      "冷": 158,
      "准": 159,
      "减": 160,
      "几": 161,
      "凭": 162,
      "出": 163,
      "击": 164,
      "分": 165,
      "切": 166,
      "列": 167,
      "则": 168,
      "创": 169,
      "判": 170,
      "利": 171,
      "别": 172,
      "到": 173,
      "制": 174,
      "刺": 175,
      "刻": 176,
      "前": 177,
      "剖": 178,
      "剽": 179,
      "力": 180,
      "办": 181,
      "功": 182,
      "动": 183,
      "劫": 184,
      "势": 185,
      "勤": 186,
      "化": 187,
      "匠": 188,
      "区": 189,
      "医": 190,
      "匿": 191,
      "十": 192,
      "千": 193,
      "升": 194,
      "博": 195,
      "卜": 196,
      "占": 197,
      "卫": 198,
      "印": 199,
      "危": 200,
      "即": 201,
      "却": 202,
      "卷": 203,
      "历": 204,
      "压": 205,
      "原": 206,
      "去": 207,
      "又": 208,
      "及": 209,
      "双": 210,
      "反": 211,
      "发": 212,
      "取": 213,
      "受": 214,
      "变": 215,
      "口": 216,
      "古": 217,
      "另": 218,
      "只": 219,
      "可": 220,
      "史": 221,
      "右": 222,
      "号": 223,
      "司": 224,
      "吃": 225,
      "各": 226,
      "合": 227,
      "同": 228,
      "名": 229,
      "后": 230,
      "向": 231,
      "吗": 232,
      "君": 233,
      "吧": 234,
      "吩": 235,
      "含": 236,
      "听": 237,
      "启": 238,
      "呈": 239,
      "告": 240,
      "员": 241,
      "周": 242,
      "命": 243,
      "和": 244,
      "咐": 245,
      "咱": 246,
      "哦": 247,
      "哺": 248,
      "唤": 249,
      "商": 250,
      "啼": 251,
      "善": 252,
      "喜": 253,
      "器": 254,
      "囚": 255,
      "回": 256,
      "因": 257,
      "团": 258,
      "园": 259,
      "困": 260,
      "固": 261,
      "国": 262,
      "图": 263,
      "土": 264,
      "圣": 265,
      "在": 266,
      "地": 267,
      "场": 268,
      "均": 269,
      "坏": 270,
      "垂": 271,
      "型": 272,
      "域": 273,
      "基": 274,
      "增": 275,
      "墟": 276,
      "士": 277,
      "壬": 278,
      "声": 279,
      "处": 280,
      "备": 281,
      "复": 282,
      "外": 283,
      "多": 284,
      "够": 285,
      "大": 286,
      "天": 287,
      "太": 288,
      "失": 289,
      "头": 290,
      "夷": 291,
      "夸": 292,
      "夺": 293,
      "奇": 294,
      "奖": 295,
      "奥": 296,
      "奴": 297,
      "她": 298,
      "好": 299,
      "如": 300,
      "妖": 301,
      "妙": 302,
      "始": 303,
      "嬉": 304,
      "子": 305,
      "孔": 306,
      "字": 307,
      "存": 308,
      "孤": 309,
      "学": 310,
      "孵": 311,
      "孽": 312,
      "它": 313,
      "宇": 314,
      "安": 315,
      "完": 316,
      "宗": 317,
      "官": 318,
      "宙": 319,
      "定": 320,
      "实": 321,
      "客": 322,
      "家": 323,
      "容": 324,
      "宿": 325,
      "寄": 326,
      "密": 327,
      "寝": 328,
      "察": 329,
      "寡": 330,
      "对": 331,
      "导": 332,
      "寿": 333,
      "封": 334,
      "射": 335,
      "将": 336,
      "尊": 337,
      "小": 338,
      "少": 339,
      "尘": 340,
      "尚": 341,
      "就": 342,
      "尽": 343,
      "尾": 344,
      "局": 345,
      "层": 346,
      "居": 347,
      "展": 348,
      "属": 349,
      "岁": 350,
      "巡": 351,
      "巢": 352,
      "工": 353,
      "左": 354,
      "巧": 355,
      "巨": 356,
      "差": 357,
      "己": 358,
      "已": 359,
      "市": 360,
      "师": 361,
      "希": 362,
      "帝": 363,
      "带": 364,
      "帮": 365,
      "常": 366,
      "干": 367,
      "平": 368,
      "年": 369,
      "并": 370,
      "幸": 371,
      "幻": 372,
      "幽": 373,
      "应": 374,
      "底": 375,
      "庚": 376,
      "府": 377,
      "庥": 378,
      "度": 379,
      "康": 380,
      "建": 381,
      "开": 382,
      "异": 383,
      "弃": 384,
      "式": 385,
      "弓": 386,
      "引": 387,
      "弱": 388,
      "强": 389,
      "归": 390,
      "当": 391,
      "录": 392,
      "形": 393,
      "影": 394,
      "役": 395,
      "彻": 396,
      "彼": 397,
      "往": 398,
      "征": 399,
      "待": 400,
      "很": 401,
      "得": 402,
      "微": 403,
      "德": 404,
      "心": 405,
      "必": 406,
      "志": 407,
      "忙": 408,
      "快": 409,
      "怎": 410,
      "怕": 411,
      "思": 412,
      "性": 413,
      "怪": 414,
      "总": 415,
      "恨": 416,
      "恰": 417,
      "悠": 418,
      "患": 419,
      "悦": 420,
      "您": 421,
      "悲": 422,
      "情": 423,
      "惊": 424,
      "惑": 425,
      "想": 426,
      "愈": 427,
      "意": 428,
      "感": 429,
      "愿": 430,
      "慢": 431,
      "慧": 432,
      "戊": 433,
      "戏": 434,
      "成": 435,
      "我": 436,
      "或": 437,
      "战": 438,
      "戳": 439,
      "户": 440,
      "所": 441,
      "手": 442,
      "打": 443,
      "扣": 444,
      "批": 445,
      "扼": 446,
      "找": 447,
      "技": 448,
      "把": 449,
      "护": 450,
      "报": 451,
      "抵": 452,
      "抹": 453,
      "拒": 454,
      "拥": 455,
      "持": 456,
      "按": 457,
      "振": 458,
      "损": 459,
      "换": 460,
      "据": 461,
      "掉": 462,
      "掌": 463,
      "排": 464,
      "掠": 465,
      "探": 466,
      "接": 467,
      "控": 468,
      "推": 469,
      "提": 470,
      "握": 471,
      "搜": 472,
      "搞": 473,
      "摆": 474,
      "摘": 475,
      "摧": 476,
      "撤": 477,
      "擅": 478,
      "操": 479,
      "支": 480,
      "改": 481,
      "攻": 482,
      "放": 483,
      "政": 484,
      "故": 485,
      "效": 486,
      "敌": 487,
      "数": 488,
      "整": 489,
      "文": 490,
      "斗": 491,
      "料": 492,
      "斤": 493,
      "斥": 494,
      "斫": 495,
      "断": 496,
      "新": 497,
      "方": 498,
      "族": 499,
      "无": 500,
      "旧": 501,
      "早": 502,
      "时": 503,
      "明": 504,
      "易": 505,
      "星": 506,
      "春": 507,
      "是": 508,
      "显": 509,
      "普": 510,
      "智": 511,
      "暂": 512,
      "暴": 513,
      "更": 514,
      "曾": 515,
      "最": 516,
      "有": 517,
      "服": 518,
      "望": 519,
      "期": 520,
      "木": 521,
      "未": 522,
      "本": 523,
      "术": 524,
      "朱": 525,
      "机": 526,
      "杀": 527,
      "权": 528,
      "束": 529,
      "条": 530,
      "来": 531,
      "极": 532,
      "构": 533,
      "果": 534,
      "枝": 535,
      "某": 536,
      "查": 537,
      "树": 538,
      "栖": 539,
      "样": 540,
      "根": 541,
      "格": 542,
      "案": 543,
      "桑": 544,
      "梢": 545,
      "棵": 546,
      "楚": 547,
      "概": 548,
      "次": 549,
      "欧": 550,
      "欲": 551,
      "止": 552,
      "正": 553,
      "此": 554,
      "步": 555,
      "武": 556,
      "死": 557,
      "殊": 558,
      "残": 559,
      "段": 560,
      "毁": 561,
      "毅": 562,
      "比": 563,
      "民": 564,
      "气": 565,
      "永": 566,
      "求": 567,
      "汇": 568,
      "汲": 569,
      "沉": 570,
      "没": 571,
      "河": 572,
      "治": 573,
      "泉": 574,
      "法": 575,
      "泛": 576,
      "泡": 577,
      "波": 578,
      "注": 579,
      "活": 580,
      "派": 581,
      "流": 582,
      "浅": 583,
      "测": 584,
      "浮": 585,
      "海": 586,
      "消": 587,
      "深": 588,
      "混": 589,
      "清": 590,
      "渐": 591,
      "渡": 592,
      "溃": 593,
      "源": 594,
      "溯": 595,
      "滞": 596,
      "满": 597,
      "漂": 598,
      "潜": 599,
      "激": 600,
      "灌": 601,
      "火": 602,
      "灭": 603,
      "灵": 604,
      "点": 605,
      "烧": 606,
      "热": 607,
      "焰": 608,
      "然": 609,
      "照": 610,
      "熟": 611,
      "燃": 612,
      "燧": 613,
      "爆": 614,
      "爬": 615,
      "爱": 616,
      "牌": 617,
      "牍": 618,
      "牢": 619,
      "物": 620,
      "特": 621,
      "犯": 622,
      "状": 623,
      "狐": 624,
      "狱": 625,
      "玉": 626,
      "王": 627,
      "玩": 628,
      "现": 629,
      "球": 630,
      "理": 631,
      "甚": 632,
      "生": 633,
      "用": 634,
      "由": 635,
      "甲": 636,
      "电": 637,
      "界": 638,
      "留": 639,
      "略": 640,
      "疑": 641,
      "病": 642,
      "痕": 643,
      "痴": 644,
      "癌": 645,
      "登": 646,
      "的": 647,
      "皇": 648,
      "盔": 649,
      "盗": 650,
      "盛": 651,
      "盟": 652,
      "目": 653,
      "直": 654,
      "相": 655,
      "看": 656,
      "真": 657,
      "眼": 658,
      "着": 659,
      "瞧": 660,
      "矢": 661,
      "矣": 662,
      "知": 663,
      "短": 664,
      "石": 665,
      "码": 666,
      "砍": 667,
      "研": 668,
      "破": 669,
      "确": 670,
      "碧": 671,
      "磁": 672,
      "示": 673,
      "社": 674,
      "祈": 675,
      "祖": 676,
      "神": 677,
      "祸": 678,
      "禁": 679,
      "离": 680,
      "种": 681,
      "科": 682,
      "积": 683,
      "称": 684,
      "移": 685,
      "程": 686,
      "稿": 687,
      "穹": 688,
      "空": 689,
      "穿": 690,
      "突": 691,
      "窖": 692,
      "竭": 693,
      "端": 694,
      "第": 695,
      "笼": 696,
      "等": 697,
      "策": 698,
      "算": 699,
      "类": 700,
      "精": 701,
      "系": 702,
      "素": 703,
      "索": 704,
      "级": 705,
      "纪": 706,
      "纯": 707,
      "纵": 708,
      "纹": 709,
      "组": 710,
      "细": 711,
      "织": 712,
      "终": 713,
      "经": 714,
      "结": 715,
      "给": 716,
      "络": 717,
      "绝": 718,
      "统": 719,
      "维": 720,
      "缓": 721,
      "缘": 722,
      "缚": 723,
      "缺": 724,
      "罕": 725,
      "罗": 726,
      "罩": 727,
      "置": 728,
      "美": 729,
      "群": 730,
      "羽": 731,
      "翼": 732,
      "老": 733,
      "考": 734,
      "者": 735,
      "而": 736,
      "耗": 737,
      "职": 738,
      "联": 739,
      "聚": 740,
      "肉": 741,
      "肌": 742,
      "肝": 743,
      "育": 744,
      "背": 745,
      "胜": 746,
      "胞": 747,
      "能": 748,
      "脏": 749,
      "脑": 750,
      "脱": 751,
      "脸": 752,
      "腔": 753,
      "腰": 754,
      "腾": 755,
      "自": 756,
      "至": 757,
      "舍": 758,
      "舟": 759,
      "航": 760,
      "般": 761,
      "舰": 762,
      "色": 763,
      "花": 764,
      "若": 765,
      "英": 766,
      "范": 767,
      "药": 768,
      "营": 769,
      "葆": 770,
      "葺": 771,
      "蕴": 772,
      "薄": 773,
      "虑": 774,
      "虽": 775,
      "融": 776,
      "血": 777,
      "行": 778,
      "衔": 779,
      "衡": 780,
      "表": 781,
      "衰": 782,
      "袋": 783,
      "被": 784,
      "装": 785,
      "西": 786,
      "要": 787,
      "覆": 788,
      "见": 789,
      "观": 790,
      "觉": 791,
      "解": 792,
      "触": 793,
      "言": 794,
      "计": 795,
      "认": 796,
      "让": 797,
      "记": 798,
      "讲": 799,
      "讳": 800,
      "许": 801,
      "论": 802,
      "证": 803,
      "识": 804,
      "词": 805,
      "译": 806,
      "试": 807,
      "诚": 808,
      "话": 809,
      "该": 810,
      "详": 811,
      "诩": 812,
      "诱": 813,
      "说": 814,
      "请": 815,
      "诸": 816,
      "读": 817,
      "调": 818,
      "谓": 819,
      "象": 820,
      "貌": 821,
      "负": 822,
      "责": 823,
      "败": 824,
      "质": 825,
      "贸": 826,
      "费": 827,
      "资": 828,
      "赖": 829,
      "赚": 830,
      "赶": 831,
      "起": 832,
      "足": 833,
      "趾": 834,
      "跃": 835,
      "距": 836,
      "身": 837,
      "躯": 838,
      "转": 839,
      "轻": 840,
      "载": 841,
      "较": 842,
      "辨": 843,
      "达": 844,
      "迁": 845,
      "过": 846,
      "近": 847,
      "还": 848,
      "这": 849,
      "进": 850,
      "远": 851,
      "述": 852,
      "迷": 853,
      "迹": 854,
      "退": 855,
      "逃": 856,
      "透": 857,
      "逐": 858,
      "通": 859,
      "速": 860,
      "造": 861,
      "道": 862,
      "遭": 863,
      "避": 864,
      "那": 865,
      "部": 866,
      "都": 867,
      "鄙": 868,
      "酉": 869,
      "配": 870,
      "酬": 871,
      "释": 872,
      "里": 873,
      "重": 874,
      "量": 875,
      "鉴": 876,
      "钉": 877,
      "钱": 878,
      "银": 879,
      "镇": 880,
      "镞": 881,
      "长": 882,
      "间": 883,
      "阅": 884,
      "阙": 885,
      "队": 886,
      "防": 887,
      "阳": 888,
      "阵": 889,
      "阶": 890,
      "阿": 891,
      "附": 892,
      "际": 893,
      "陆": 894,
      "降": 895,
      "院": 896,
      "除": 897,
      "险": 898,
      "陶": 899,
      "隆": 900,
      "随": 901,
      "隐": 902,
      "难": 903,
      "雀": 904,
      "雄": 905,
      "集": 906,
      "雇": 907,
      "雷": 908,
      "雾": 909,
      "需": 910,
      "露": 911,
      "青": 912,
      "非": 913,
      "靠": 914,
      "面": 915,
      "顶": 916,
      "顺": 917,
      "颂": 918,
      "领": 919,
      "频": 920,
      "颜": 921,
      "飞": 922,
      "食": 923,
      "饶": 924,
      "首": 925,
      "马": 926,
      "驯": 927,
      "骁": 928,
      "验": 929,
      "骑": 930,
      "骨": 931,
      "骼": 932,
      "高": 933,
      "鬼": 934,
      "魂": 935,
      "魔": 936,
      "鸟": 937,
      "鸢": 938,
      "鼎": 939,
      "龄": 940,
      "龙": 941,
      "﻿": 942,
      "..": 943,
      "岁阳": 944,
      "他们": 945,
      "翼者": 946,
      "造翼者": 947,
      "仙舟": 948,
      "狐人": 949,
      "...": 950,
      "记录": 951,
      "细胞": 952,
      "全能": 953,
      "穹桑": 954,
      "丰饶": 955,
      "它们": 956,
      "干细胞": 957,
      "造翼者的": 958,
      "全能干细胞": 959,
      "无法": 960,
      "生物": 961,
      "能量": 962,
      "声纹": 963,
      "我们": 964,
      "肝脏": 965,
      "转译": 966,
      "无法转译": 967,
      "声纹无法转译": 968,
      ",「": 969,
      "」。": 970,
      "人类": 971,
      "宿主": 972,
      "无形": 973,
      "码头": 974,
      "这些": 975,
      "飞行": 976,
      "狐人的": 977,
      "」,": 978,
      "一些": 979,
      "不可": 980,
      "东侧": 981,
      "云渡": 982,
      "其他": 983,
      "印戳": 984,
      "失去": 985,
      "按照": 986,
      "步离": 987,
      "流云渡": 988,
      "科技": 989,
      "认为": 990,
      "长岁": 991,
      "长生": 992,
      "记录印戳": 993,
      "步离人": 994,
      "流云渡东侧": 995,
      "),": 996,
      ")。": 997,
      "一族": 998,
      "不具": 999,
      "世界": 1000,
      "什么": 1001,
      "任何": 1002,
      "使得": 1003,
      "力的": 1004,
      "司的": 1005,
      "器官": 1006,
      "大的": 1007,
      "寄生": 1008,
      "时间": 1009,
      "朱明": 1010,
      "死亡": 1011,
      "目前": 1012,
      "这种": 1013,
      "通过": 1014,
      "青镞": 1015,
      "....": 1016,
      "岁阳一族": 1017,
      "他们的": 1018,
      "...【": 1019,
      "穹桑的": 1020,
      "这些全能干细胞": 1021,
      ")、": 1022,
      "一样": 1023,
      "三号": 1024,
      "上的": 1025,
      "个体": 1026,
      "为什么": 1027,
      "也许": 1028,
      "会在": 1029,
      "体内": 1030,
      "依然": 1031,
      "克利": 1032,
      "军团": 1033,
      "分类": 1034,
      "功能": 1035,
      "发现": 1036,
      "变成": 1037,
      "可以": 1038,
      "墟庚": 1039,
      "字三号": 1040,
      "孽物": 1041,
      "尚未": 1042,
      "差异": 1043,
      "帝弓": 1044,
      "建木": 1045,
      "戊时": 1046,
      "报告": 1047,
      "接触": 1048,
      "政治": 1049,
      "文明": 1050,
      "智慧": 1051,
      "枝梢": 1052,
      "某种": 1053,
      "沉墟庚": 1054,
      "火焰": 1055,
      "然死亡": 1056,
      "生命": 1057,
      "生理": 1058,
      "的人": 1059,
      "的原": 1060,
      "称为": 1061,
      "类似": 1062,
      "结构": 1063,
      "自由": 1064,
      "自然死亡": 1065,
      "虽然": 1066,
      "被称为": 1067,
      "距离": 1068,
      "鸢首": 1069,
      "岁阳的": 1070,
      "岁阳个体": 1071,
      "丰饶民": 1072,
      "丰饶孽物": 1073,
      "生物学": 1074,
      "能量的": 1075,
      "无形目": 1076,
      "克利欧": 1077,
      "50": 1078,
      ":「": 1079,
      "?」": 1080,
      "——": 1081,
      "。(": 1082,
      "。)": 1083,
      "。」": 1084,
      "』,": 1085,
      "一切": 1086,
      "一方": 1087,
      "三人": 1088,
      "上溯": 1089,
      "不少": 1090,
      "不能": 1091,
      "不记": 1092,
      "与造翼者的": 1093,
      "东西": 1094,
      "个肝脏": 1095,
      "中断": 1096,
      "中能": 1097,
      "丹鼎": 1098,
      "久的": 1099,
      "之前": 1100,
      "之后": 1101,
      "之外": 1102,
      "之民": 1103,
      "之精": 1104,
      "之间": 1105,
      "了一": 1106,
      "了几": 1107,
      "争中": 1108,
      "二刻": 1109,
      "云骑": 1110,
      "亚种": 1111,
      "从未": 1112,
      "件事": 1113,
      "价值": 1114,
      "但我": 1115,
      "体的": 1116,
      "你的": 1117,
      "你还": 1118,
      "佣兵": 1119,
      "依旧": 1120,
      "光矢": 1121,
      "全的": 1122,
      "关于": 1123,
      "关系": 1124,
      "其中": 1125,
      "其起": 1126,
      "具有": 1127,
      "再度": 1128,
      "决定": 1129,
      "准备": 1130,
      "几乎": 1131,
      "出现": 1132,
      "出的": 1133,
      "分化": 1134,
      "切除": 1135,
      "到了": 1136,
      "到的": 1137,
      "前往": 1138,
      "劫大": 1139,
      "医学": 1140,
      "即是": 1141,
      "卷宗": 1142,
      "历史": 1143,
      "及至": 1144,
      "变化": 1145,
      "后的": 1146,
      "启航": 1147,
      "在了": 1148,
      "壬字三号": 1149,
      "复生": 1150,
      "多数": 1151,
      "多器官": 1152,
      "大部": 1153,
      "大量": 1154,
      "大仙舟": 1155,
      "大多数": 1156,
      "天之外": 1157,
      "太卜": 1158,
      "奥登": 1159,
      "好在": 1160,
      "如果": 1161,
      "学者": 1162,
      "宇宙": 1163,
      "容颜": 1164,
      "封印": 1165,
      "小字": 1166,
      "少数": 1167,
      "尘民": 1168,
      "就是": 1169,
      "居于": 1170,
      "属于": 1171,
      "巡防": 1172,
      "巨大的": 1173,
      "希望": 1174,
      "年前": 1175,
      "底部": 1176,
      "度的": 1177,
      "开始": 1178,
      "当时": 1179,
      "形体的": 1180,
      "很快": 1181,
      "性的": 1182,
      "总算": 1183,
      "悠久的": 1184,
      "患者": 1185,
      "情报": 1186,
      "意思": 1187,
      "我得": 1188,
      "我没": 1189,
      "我说": 1190,
      "战争中": 1191,
      "所有": 1192,
      "批注": 1193,
      "换气": 1194,
      "掌握": 1195,
      "掠夺": 1196,
      "探明": 1197,
      "接近": 1198,
      "提及": 1199,
      "搞不": 1200,
      "摘要": 1201,
      "操纵": 1202,
      "数量": 1203,
      "整个肝脏": 1204,
      "族类": 1205,
      "时代": 1206,
      "时候": 1207,
      "星海": 1208,
      "星火": 1209,
      "星球": 1210,
      "星际": 1211,
      "是联": 1212,
      "最终": 1213,
      "最近": 1214,
      "束缚": 1215,
      "来的": 1216,
      "某个": 1217,
      "正是": 1218,
      "武器": 1219,
      "毁灭": 1220,
      "毅他们": 1221,
      "活得": 1222,
      "流离": 1223,
      "源星球": 1224,
      "火劫大": 1225,
      "玉阙": 1226,
      "现身": 1227,
      "生成": 1228,
      "生长": 1229,
      "癌细胞": 1230,
      "的主": 1231,
      "的事": 1232,
      "的囚": 1233,
      "的强": 1234,
      "的树": 1235,
      "的诸": 1236,
      "的过": 1237,
      "的能量": 1238,
      "的肝脏": 1239,
      "的生命": 1240,
      "的容颜": 1241,
      "的数量": 1242,
      "盟历史": 1243,
      "直到": 1244,
      "相关": 1245,
      "瞧见": 1246,
      "知识": 1247,
      "短时间": 1248,
      "种族": 1249,
      "种的": 1250,
      "种种": 1251,
      "程度的": 1252,
      "穿透": 1253,
      "组织": 1254,
      "结盟": 1255,
      "给我": 1256,
      "维持": 1257,
      "羽民": 1258,
      "老师": 1259,
      "肉体": 1260,
      "肌肉": 1261,
      "能力": 1262,
      "能力的": 1263,
      "自己": 1264,
      "至仙舟": 1265,
      "舰队": 1266,
      "英雄": 1267,
      "行为": 1268,
      "行小字": 1269,
      "衰老": 1270,
      "观测": 1271,
      "记载": 1272,
      "许多": 1273,
      "跃迁": 1274,
      "身躯": 1275,
      "这件事": 1276,
      "通常": 1277,
      "通鉴": 1278,
      "速度": 1279,
      "那么": 1280,
      "那些": 1281,
      "那东西": 1282,
      "都会在": 1283,
      "酉时": 1284,
      "阿毅他们": 1285,
      "随着": 1286,
      "雷奥登": 1287,
      "需要": 1288,
      "他们在": 1289,
      "造翼者们": 1290,
      "仙舟舰队": 1291,
      "仙舟通鉴": 1292,
      "狐人在": 1293,
      "丰饶之民": 1294,
      "飞行能力的": 1295,
      "狐人的全能干细胞": 1296,
      "其他世界": 1297,
      "长生种的": 1298,
      "朱明仙舟": 1299,
      "朱明的人": 1300,
      "目前尚未": 1301,
      "......": 1302,
      "这些全能干细胞会": 1303,
      "智慧种族": 1304,
      "沉墟庚字": 1305,
      "距离时": 1306,
      "鸢首壬字三号": 1307,
      "丰饶民的": 1308,
      "生物学上的": 1309,
      "一方面": 1310,
      "上溯至仙舟": 1311,
      "不记得": 1312,
      "了几行小字": 1313,
      "其起源星球": 1314,
      "切除了": 1315,
      "医学报告": 1316,
      "卷宗底部": 1317,
      "复生速度": 1318,
      "大部分": 1319,
      "天之外海": 1320,
      "总算是": 1321,
      "批注了几行小字": 1322,
      "星火之精": 1323,
      "是联盟历史": 1324,
      "火劫大战": 1325,
      "玉阙太卜": 1326,
      "癌细胞团": 1327,
      "的过程": 1328,
      "短时间内": 1329,
      "目前尚未探明": 1330,
      "其起源星球目前尚未探明": 1331,
      "卷宗底部批注了几行小字": 1332,
      "是联盟历史悠久的": 1333,
      "*。": 1334,
      "00": 1335,
      "07": 1336,
      "0年前": 1337,
      "250": 1338,
      "20年前": 1339,
      "307": 1340,
      "320年前": 1341,
      "4天": 1342,
      "450": 1343,
      "400": 1344,
      "5320年前": 1345,
      "?!": 1346,
      "、「": 1347,
      "」(": 1348,
      "」——": 1349,
      "」、「": 1350,
      "』。": 1351,
      "一团": 1352,
      "一定": 1353,
      "一对": 1354,
      "一层": 1355,
      "一度": 1356,
      "一提": 1357,
      "一棵": 1358,
      "一生": 1359,
      "一神": 1360,
      "一般": 1361,
      "七情": 1362,
      "万端": 1363,
      "三刻": 1364,
      "三十": 1365,
      "三次": 1366,
      "上来": 1367,
      "上长": 1368,
      "下两": 1369,
      "下的": 1370,
      "下枝梢": 1371,
      "下光矢": 1372,
      "不上": 1373,
      "不也": 1374,
      "不及": 1375,
      "不完": 1376,
      "不忙": 1377,
      "不想": 1378,
      "不排": 1379,
      "不断": 1380,
      "不是": 1381,
      "不止": 1382,
      "不死": 1383,
      "不知": 1384,
      "不老": 1385,
      "不至": 1386,
      "不全能": 1387,
      "不大的": 1388,
      "不全的": 1389,
      "与之": 1390,
      "与书": 1391,
      "与人": 1392,
      "与其": 1393,
      "与爆": 1394,
      "与盔": 1395,
      "与精": 1396,
      "与仙舟": 1397,
      "与其他": 1398,
      "与步离人": 1399,
      "与建木": 1400,
      "与岁阳的": 1401,
      "与丰饶民的": 1402,
      "专利": 1403,
      "世为": 1404,
      "世外": 1405,
      "业价值": 1406,
      "两种": 1407,
      "两者": 1408,
      "严格": 1409,
      "个妖": 1410,
      "个市": 1411,
      "个性": 1412,
      "个身": 1413,
      "个巨大的": 1414,
      "中位": 1415,
      "中学": 1416,
      "中搜": 1417,
      "中搞": 1418,
      "中的": 1419,
      "中称": 1420,
      "中罕": 1421,
      "中都": 1422,
      "中飞行": 1423,
      "中三人": 1424,
      "中提及": 1425,
      "为了": 1426,
      "为其": 1427,
      "为泛": 1428,
      "为缓": 1429,
      "为我们": 1430,
      "为某种": 1431,
      "为无形目": 1432,
      "为佣兵": 1433,
      "为长生种的": 1434,
      "主动": 1435,
      "举报": 1436,
      "乃得": 1437,
      "么夸": 1438,
      "么个妖": 1439,
      "之下": 1440,
      "之为": 1441,
      "之兆": 1442,
      "之处": 1443,
      "之成": 1444,
      "之所": 1445,
      "之祸": 1446,
      "之而": 1447,
      "乎鬼": 1448,
      "九大仙舟": 1449,
      "也会": 1450,
      "也是": 1451,
      "也未": 1452,
      "也遭": 1453,
      "也使得": 1454,
      "习知识": 1455,
      "书和": 1456,
      "了他": 1457,
      "了冷": 1458,
      "了吧": 1459,
      "了好": 1460,
      "了本": 1461,
      "了他们": 1462,
      "了它们": 1463,
      "了造翼者的": 1464,
      "了我们": 1465,
      "了步离人": 1466,
      "了穹桑的": 1467,
      "了建木": 1468,
      "了不少": 1469,
      "了阿毅他们": 1470,
      "了两者": 1471,
      "事实": 1472,
      "事故": 1473,
      "二十": 1474,
      "二号": 1475,
      "二次": 1476,
      "二者": 1477,
      "于其": 1478,
      "于发": 1479,
      "于各": 1480,
      "于基": 1481,
      "于来": 1482,
      "于这": 1483,
      "于宇宙": 1484,
      "云君": 1485,
      "云是": 1486,
      "五大": 1487,
      "亡而": 1488,
      "产生": 1489,
      "享给我": 1490,
      "亲缘": 1491,
      "人们": 1492,
      "人员": 1493,
      "人方": 1494,
      "人的": 1495,
      "人科": 1496,
      "人马": 1497,
      "人尚未": 1498,
      "人都会在": 1499,
      "人主动": 1500,
      "仅凭": 1501,
      "仆从": 1502,
      "今未": 1503,
      "今所有": 1504,
      "从其": 1505,
      "从结": 1506,
      "从他们": 1507,
      "从宿主": 1508,
      "从属于": 1509,
      "他了": 1510,
      "他会": 1511,
      "他又": 1512,
      "他那": 1513,
      "仗的": 1514,
      "仙方": 1515,
      "令使": 1516,
      "令其": 1517,
      "令宿主": 1518,
      "令不具": 1519,
      "以拒": 1520,
      "以换": 1521,
      "以推": 1522,
      "以本": 1523,
      "以败": 1524,
      "以无形": 1525,
      "以失去": 1526,
      "以穿透": 1527,
      "以一团": 1528,
      "以下两": 1529,
      "仪器": 1530,
      "们工": 1531,
      "仿生": 1532,
      "伏岁阳": 1533,
      "众多": 1534,
      "众举报": 1535,
      "优势": 1536,
      "会储": 1537,
      "会变": 1538,
      "会和": 1539,
      "会等": 1540,
      "会逐": 1541,
      "会不可": 1542,
      "会生长": 1543,
      "会观测": 1544,
      "会令不具": 1545,
      "会以一团": 1546,
      "传统": 1547,
      "伤残": 1548,
      "伤都会在": 1549,
      "伴生": 1550,
      "似重": 1551,
      "但它": 1552,
      "但总": 1553,
      "但现": 1554,
      "但若": 1555,
      "但它们": 1556,
      "但依然": 1557,
      "但从未": 1558,
      "但巨大的": 1559,
      "但很快": 1560,
      "但星海": 1561,
      "位佚": 1562,
      "位名": 1563,
      "位无": 1564,
      "位置": 1565,
      "位丹鼎": 1566,
      "位英雄": 1567,
      "低的": 1568,
      "住民": 1569,
      "体积": 1570,
      "体重": 1571,
      "体力的": 1572,
      "作为无形目": 1573,
      "你就": 1574,
      "你应": 1575,
      "你摆": 1576,
      "你自": 1577,
      "你一样": 1578,
      "你也许": 1579,
      "你最近": 1580,
      "使用": 1581,
      "使这些全能干细胞": 1582,
      "供给": 1583,
      "供能量": 1584,
      "依次": 1585,
      "依照": 1586,
      "依赖": 1587,
      "侦察": 1588,
      "侵仙舟舰队": 1589,
      "便在": 1590,
      "便是": 1591,
      "便暴": 1592,
      "促使这些全能干细胞": 1593,
      "保持": 1594,
      "信后": 1595,
      "信安": 1596,
      "信接": 1597,
      "修复": 1598,
      "修葺": 1599,
      "修长": 1600,
      "俯冲": 1601,
      "倒退": 1602,
      "倒他了": 1603,
      "倚之成": 1604,
      "做过": 1605,
      "做个市": 1606,
      "停摆": 1607,
      "停之所": 1608,
      "像人类": 1609,
      "像宇宙": 1610,
      "充满": 1611,
      "先我": 1612,
      "先祖": 1613,
      "光学": 1614,
      "光怪": 1615,
      "光的": 1616,
      "党逃": 1617,
      "入侵仙舟舰队": 1618,
      "全数": 1619,
      "全是": 1620,
      "全都": 1621,
      "全无法": 1622,
      "公开": 1623,
      "公里": 1624,
      "公司的": 1625,
      "六千": 1626,
      "六号": 1627,
      "六欲": 1628,
      "共计": 1629,
      "共生物": 1630,
      "兴师": 1631,
      "兴盛": 1632,
      "兵势": 1633,
      "其军": 1634,
      "其列": 1635,
      "其射": 1636,
      "其成": 1637,
      "其最": 1638,
      "其社": 1639,
      "其首": 1640,
      "其飞行": 1641,
      "其生物学": 1642,
      "其组织": 1643,
      "其下的": 1644,
      "其兵势": 1645,
      "内容": 1646,
      "内就": 1647,
      "内死亡": 1648,
      "内的能量": 1649,
      "再有": 1650,
      "再次": 1651,
      "再也未": 1652,
      "再低的": 1653,
      "军与造翼者的": 1654,
      "冰和": 1655,
      "准人类": 1656,
      "减少": 1657,
      "几小": 1658,
      "几斤": 1659,
      "几位丹鼎": 1660,
      "出发": 1661,
      "出新": 1662,
      "出没": 1663,
      "出院": 1664,
      "出他们的": 1665,
      "出种种": 1666,
      "出了我们": 1667,
      "击溃": 1668,
      "击疑": 1669,
      "击性的": 1670,
      "分子": 1671,
      "分支": 1672,
      "分配": 1673,
      "分队": 1674,
      "分享给我": 1675,
      "切断": 1676,
      "切证": 1677,
      "则是": 1678,
      "则自": 1679,
      "则依次": 1680,
      "判令其": 1681,
      "别说": 1682,
      "别岁阳个体": 1683,
      "到治": 1684,
      "到满": 1685,
      "到一些": 1686,
      "到步离人": 1687,
      "到某种": 1688,
      "到不少": 1689,
      "到自己": 1690,
      "到250": 1691,
      "到先祖": 1692,
      "制地": 1693,
      "制度": 1694,
      "制造": 1695,
      "制其飞行": 1696,
      "刺激": 1697,
      "前数": 1698,
      "前略": 1699,
      "前的": 1700,
      "剖学": 1701,
      "剽掠": 1702,
      "力惊": 1703,
      "办成": 1704,
      "办法": 1705,
      "功击溃": 1706,
      "动作": 1707,
      "动性": 1708,
      "动等": 1709,
      "动身": 1710,
      "势必": 1711,
      "勤部": 1712,
      "化中": 1713,
      "化外": 1714,
      "化能量的": 1715,
      "匠以无形": 1716,
      "区别": 1717,
      "区域": 1718,
      "医士": 1719,
      "医案": 1720,
      "医书和": 1721,
      "匿形": 1722,
      "十王": 1723,
      "升格": 1724,
      "博识": 1725,
      "占夺": 1726,
      "卫天": 1727,
      "危险": 1728,
      "却极": 1729,
      "却依然": 1730,
      "历了一": 1731,
      "历5320年前": 1732,
      "压于各": 1733,
      "压制其飞行": 1734,
      "原因": 1735,
      "原始": 1736,
      "去的": 1737,
      "去至": 1738,
      "去之前": 1739,
      "及仙方": 1740,
      "及其军": 1741,
      "双足": 1742,
      "反应": 1743,
      "反物": 1744,
      "发展": 1745,
      "发行": 1746,
      "发觉": 1747,
      "发达": 1748,
      "发力惊": 1749,
      "取它": 1750,
      "取悦": 1751,
      "取爱": 1752,
      "取阅": 1753,
      "取长生": 1754,
      "取任何": 1755,
      "取了他": 1756,
      "受困": 1757,
      "受此": 1758,
      "受重": 1759,
      "变没": 1760,
      "变老": 1761,
      "变为长生种的": 1762,
      "变区域": 1763,
      "古国": 1764,
      "另有": 1765,
      "另一方面": 1766,
      "只是": 1767,
      "可怕": 1768,
      "可支": 1769,
      "可是": 1770,
      "可能": 1771,
      "可见": 1772,
      "可接近": 1773,
      "可上溯至仙舟": 1774,
      "可再低的": 1775,
      "史料": 1776,
      "右自由": 1777,
      "司命": 1778,
      "司还": 1779,
      "司里": 1780,
      "司观测": 1781,
      "吃回": 1782,
      "吃掉": 1783,
      "各种": 1784,
      "同时": 1785,
      "名的": 1786,
      "后事": 1787,
      "后瞧见": 1788,
      "后勤部": 1789,
      "向仙舟": 1790,
      "向克利欧": 1791,
      "向天之外海": 1792,
      "吩咐": 1793,
      "含有": 1794,
      "含着": 1795,
      "听说": 1796,
      "呈现": 1797,
      "员混": 1798,
      "周期": 1799,
      "和损": 1800,
      "和我说": 1801,
      "和所有": 1802,
      "和星际": 1803,
      "和武器": 1804,
      "和肌肉": 1805,
      "和狐人在": 1806,
      "和体力的": 1807,
      "和你一样": 1808,
      "和几位丹鼎": 1809,
      "咱们工": 1810,
      "哺育": 1811,
      "唤它": 1812,
      "商业价值": 1813,
      "啼颂": 1814,
      "善用": 1815,
      "喜好": 1816,
      "囚狱": 1817,
      "因此": 1818,
      "因素": 1819,
      "因为某种": 1820,
      "固定": 1821,
      "图占夺": 1822,
      "圣巢": 1823,
      "在客": 1824,
      "在真": 1825,
      "在转": 1826,
      "在银": 1827,
      "在狐人": 1828,
      "在造翼者的": 1829,
      "在肝脏": 1830,
      "在狐人的": 1831,
      "在大量": 1832,
      "在我得": 1833,
      "在星际": 1834,
      "在某个": 1835,
      "在自己": 1836,
      "在短时间内": 1837,
      "在三次": 1838,
      "在原始": 1839,
      "地方": 1840,
      "地位无": 1841,
      "场调": 1842,
      "均发现": 1843,
      "均被称为": 1844,
      "均从属于": 1845,
      "垂下枝梢": 1846,
      "基于其": 1847,
      "增多": 1848,
      "士索": 1849,
      "士及仙方": 1850,
      "声明": 1851,
      "处即是": 1852,
      "备飞行能力的": 1853,
      "备了步离人": 1854,
      "复出院": 1855,
      "多大": 1856,
      "多寡": 1857,
      "多对": 1858,
      "多变化": 1859,
      "多年前": 1860,
      "够使得": 1861,
      "够危险": 1862,
      "大军": 1863,
      "大小": 1864,
      "大敌": 1865,
      "大概": 1866,
      "大脑": 1867,
      "大能力": 1868,
      "大倒退": 1869,
      "天使": 1870,
      "天外": 1871,
      "天青": 1872,
      "太可怕": 1873,
      "失效": 1874,
      "失灵": 1875,
      "失联": 1876,
      "夷自": 1877,
      "夺舍": 1878,
      "奇怪": 1879,
      "奇的能量": 1880,
      "奖你": 1881,
      "奴役": 1882,
      "好几斤": 1883,
      "如暴": 1884,
      "如今所有": 1885,
      "如其生物学": 1886,
      "妖魔": 1887,
      "妙但巨大的": 1888,
      "嬉戏": 1889,
      "孔雀": 1890,
      "存大量": 1891,
      "孤航": 1892,
      "学技": 1893,
      "学会和": 1894,
      "学士索": 1895,
      "孵育": 1896,
      "它曾": 1897,
      "它能": 1898,
      "它被称为": 1899,
      "完成": 1900,
      "完整": 1901,
      "完全无法": 1902,
      "定属于": 1903,
      "家伙": 1904,
      "家园": 1905,
      "宿敌": 1906,
      "密科技": 1907,
      "察其组织": 1908,
      "察到自己": 1909,
      "对他们": 1910,
      "对宿主": 1911,
      "对你摆": 1912,
      "导穹桑的": 1913,
      "寿终": 1914,
      "封禁": 1915,
      "封信后": 1916,
      "射下光矢": 1917,
      "将报告": 1918,
      "尊兴师": 1919,
      "小队": 1920,
      "少量": 1921,
      "少出现": 1922,
      "少六千": 1923,
      "就死": 1924,
      "就可以": 1925,
      "尽了好": 1926,
      "尾声": 1927,
      "局一样": 1928,
      "局势必": 1929,
      "居停之所": 1930,
      "居其下的": 1931,
      "岁之间": 1932,
      "工人": 1933,
      "工匠以无形": 1934,
      "左右自由": 1935,
      "巧鸟": 1936,
      "已经": 1937,
      "已过": 1938,
      "已全数": 1939,
      "帝王": 1940,
      "帝尊兴师": 1941,
      "带来的": 1942,
      "带一提": 1943,
      "帮我": 1944,
      "常康": 1945,
      "平衡": 1946,
      "年时": 1947,
      "年病": 1948,
      "年轻": 1949,
      "年龄": 1950,
      "并无": 1951,
      "并非": 1952,
      "并可以": 1953,
      "并不能": 1954,
      "并不全能": 1955,
      "并伴生": 1956,
      "并动作": 1957,
      "并哺育": 1958,
      "幸最终": 1959,
      "幻象": 1960,
      "幽囚狱": 1961,
      "应神": 1962,
      "底停摆": 1963,
      "庥隆": 1964,
      "度依赖": 1965,
      "开人类": 1966,
      "开束缚": 1967,
      "弃以本": 1968,
      "引导穹桑的": 1969,
      "归希望": 1970,
      "当然": 1971,
      "当程度的": 1972,
      "形式": 1973,
      "形成": 1974,
      "形时": 1975,
      "形见": 1976,
      "影像": 1977,
      "役之后": 1978,
      "彻底停摆": 1979,
      "彼时": 1980,
      "彼此": 1981,
      "往往": 1982,
      "征呈现": 1983,
      "待更": 1984,
      "得多": 1985,
      "得较": 1986,
      "得很快": 1987,
      "得到治": 1988,
      "微妙但巨大的": 1989,
      "心智": 1990,
      "必打": 1991,
      "快把": 1992,
      "快速": 1993,
      "怎么夸": 1994,
      "怕变老": 1995,
      "性使用": 1996,
      "恨悲": 1997,
      "恰恰": 1998,
      "患最": 1999,
      "您别说": 2000,
      "情感": 2001,
      "情形见": 2002,
      "惑人类": 2003,
      "想法": 2004,
      "意志": 2005,
      "意以下两": 2006,
      "意分享给我": 2007,
      "感到满": 2008,
      "感应神": 2009,
      "愿意分享给我": 2010,
      "慢得多": 2011,
      "成形": 2012,
      "成为佣兵": 2013,
      "我抵": 2014,
      "我明": 2015,
      "我的": 2016,
      "我读": 2017,
      "我认为": 2018,
      "我目前": 2019,
      "我决定": 2020,
      "我总算是": 2021,
      "我不想": 2022,
      "我动身": 2023,
      "我听说": 2024,
      "我将报告": 2025,
      "或她": 2026,
      "或美": 2027,
      "或与其他": 2028,
      "或多对": 2029,
      "战士": 2030,
      "战斗": 2031,
      "战局势必": 2032,
      "所用": 2033,
      "所示": 2034,
      "所行": 2035,
      "所谓": 2036,
      "所掌握": 2037,
      "所以失去": 2038,
      "所带来的": 2039,
      "所幸最终": 2040,
      "手术": 2041,
      "手中搞": 2042,
      "打动": 2043,
      "打仗的": 2044,
      "扣了吧": 2045,
      "扼制地": 2046,
      "找到的": 2047,
      "护的": 2048,
      "报给": 2049,
      "抹去的": 2050,
      "拥有": 2051,
      "拥护的": 2052,
      "持有": 2053,
      "振动等": 2054,
      "据说": 2055,
      "掉脑": 2056,
      "探出的": 2057,
      "接撤": 2058,
      "控血": 2059,
      "推测": 2060,
      "推移": 2061,
      "提供能量": 2062,
      "摧毁": 2063,
      "擅长": 2064,
      "擅于发": 2065,
      "操控血": 2066,
      "改变区域": 2067,
      "攻击性的": 2068,
      "放换气": 2069,
      "放弃以本": 2070,
      "故土": 2071,
      "数是": 2072,
      "文附": 2073,
      "文化中": 2074,
      "文向克利欧": 2075,
      "斫断": 2076,
      "断不可": 2077,
      "断出他们的": 2078,
      "无根": 2079,
      "无论": 2080,
      "无固定": 2081,
      "早有": 2082,
      "时速": 2083,
      "时的容颜": 2084,
      "时内就": 2085,
      "时早有": 2086,
      "明求": 2087,
      "明砍": 2088,
      "明二者": 2089,
      "星历5320年前": 2090,
      "是我": 2091,
      "是正": 2092,
      "是由": 2093,
      "是相": 2094,
      "是什么": 2095,
      "是丹鼎": 2096,
      "是关于": 2097,
      "是卫天": 2098,
      "是天青": 2099,
      "是无固定": 2100,
      "显然": 2101,
      "显示": 2102,
      "显形时": 2103,
      "普通": 2104,
      "智能": 2105,
      "暂的生命": 2106,
      "更大的": 2107,
      "曾发现": 2108,
      "最爱": 2109,
      "有关": 2110,
      "有着": 2111,
      "有确": 2112,
      "有羽": 2113,
      "有过": 2114,
      "有少数": 2115,
      "有飞行能力的": 2116,
      "有一对": 2117,
      "有两种": 2118,
      "有所行": 2119,
      "服宿主": 2120,
      "未必打": 2121,
      "本领": 2122,
      "术难": 2123,
      "机动性": 2124,
      "机巧鸟": 2125,
      "杀剽掠": 2126,
      "权利": 2127,
      "权全是": 2128,
      "条上": 2129,
      "来了": 2130,
      "来自": 2131,
      "来赚": 2132,
      "来到先祖": 2133,
      "来取悦": 2134,
      "来得很快": 2135,
      "来拥有": 2136,
      "极短": 2137,
      "枝的": 2138,
      "枝种": 2139,
      "枝条上": 2140,
      "某位英雄": 2141,
      "栖居于": 2142,
      "案牍": 2143,
      "棵奇怪": 2144,
      "楚是什么": 2145,
      "次大倒退": 2146,
      "正寝": 2147,
      "正常康": 2148,
      "此类": 2149,
      "此说": 2150,
      "此之后": 2151,
      "此处即是": 2152,
      "此役之后": 2153,
      "死灭": 2154,
      "死去之前": 2155,
      "殊的": 2156,
      "残缺": 2157,
      "残党逃": 2158,
      "残杀剽掠": 2159,
      "比起": 2160,
      "民搞不": 2161,
      "气泡": 2162,
      "永葆": 2163,
      "永远": 2164,
      "永世为": 2165,
      "求居停之所": 2166,
      "汇报给": 2167,
      "汲取爱": 2168,
      "没办法": 2169,
      "没多大": 2170,
      "没有确": 2171,
      "河中能": 2172,
      "泉老": 2173,
      "波反应": 2174,
      "注意以下两": 2175,
      "活力": 2176,
      "派出的": 2177,
      "派出了我们": 2178,
      "浅薄": 2179,
      "海盗": 2180,
      "消耗": 2181,
      "消隐": 2182,
      "清查": 2183,
      "清楚是什么": 2184,
      "渐渐": 2185,
      "渐减少": 2186,
      "源与人": 2187,
      "源供给": 2188,
      "滞留": 2189,
      "满了": 2190,
      "漂航": 2191,
      "潜在客": 2192,
      "灌了他们": 2193,
      "火了": 2194,
      "灭其兵势": 2195,
      "灵长": 2196,
      "点突": 2197,
      "热能": 2198,
      "然后瞧见": 2199,
      "然失效": 2200,
      "熟了": 2201,
      "燃烧": 2202,
      "燧皇": 2203,
      "爬起": 2204,
      "牢吗": 2205,
      "物一般": 2206,
      "特征呈现": 2207,
      "特殊的": 2208,
      "犯者": 2209,
      "状仿生": 2210,
      "玩火了": 2211,
      "现的": 2212,
      "现象": 2213,
      "理由": 2214,
      "理大概": 2215,
      "甚至": 2216,
      "生产": 2217,
      "生的诸": 2218,
      "用他们的": 2219,
      "由肝脏": 2220,
      "电磁": 2221,
      "留着": 2222,
      "痕迹": 2223,
      "痴迷": 2224,
      "的祖": 2225,
      "的神": 2226,
      "的科": 2227,
      "的背": 2228,
      "的腰": 2229,
      "的覆": 2230,
      "的试": 2231,
      "的话": 2232,
      "的资": 2233,
      "的迷": 2234,
      "的阵": 2235,
      "的岁阳": 2236,
      "的记录": 2237,
      "的宿主": 2238,
      "的功能": 2239,
      "的生理": 2240,
      "的结构": 2241,
      "的无形目": 2242,
      "的关系": 2243,
      "的整个肝脏": 2244,
      "的族类": 2245,
      "的正是": 2246,
      "的武器": 2247,
      "的羽民": 2248,
      "的能力": 2249,
      "的行为": 2250,
      "的记载": 2251,
      "的身躯": 2252,
      "的令使": 2253,
      "的体积": 2254,
      "的内容": 2255,
      "的区别": 2256,
      "的医书和": 2257,
      "的双足": 2258,
      "的地方": 2259,
      "的家伙": 2260,
      "的幽囚狱": 2261,
      "的想法": 2262,
      "的权利": 2263,
      "的枝条上": 2264,
      "的残缺": 2265,
      "的理由": 2266,
      "的痕迹": 2267,
      "目击疑": 2268,
      "相反": 2269,
      "相斥": 2270,
      "相较": 2271,
      "相当程度的": 2272,
      "看看": 2273,
      "看来拥有": 2274,
      "真够危险": 2275,
      "眼间": 2276,
      "着能": 2277,
      "着这": 2278,
      "着一层": 2279,
      "着年轻": 2280,
      "矣维持": 2281,
      "短暂的生命": 2282,
      "石圣巢": 2283,
      "研吧": 2284,
      "破坏": 2285,
      "确的": 2286,
      "碧色": 2287,
      "祈求居停之所": 2288,
      "神策": 2289,
      "神话": 2290,
      "神之兆": 2291,
      "神的能力": 2292,
      "离群": 2293,
      "离的生命": 2294,
      "稿酬": 2295,
      "穹顶": 2296,
      "空腔": 2297,
      "空中飞行": 2298,
      "突击": 2299,
      "竭所带来的": 2300,
      "端高": 2301,
      "第二次": 2302,
      "笼罩": 2303,
      "笼束缚": 2304,
      "算活得": 2305,
      "类型": 2306,
      "类的生理": 2307,
      "精科": 2308,
      "系统": 2309,
      "级之下": 2310,
      "级分配": 2311,
      "纯能量": 2312,
      "纵欲": 2313,
      "细政治": 2314,
      "经费": 2315,
      "经历了一": 2316,
      "经系统": 2317,
      "结冰和": 2318,
      "结局一样": 2319,
      "络中断": 2320,
      "绝大多数": 2321,
      "绝少出现": 2322,
      "罗浮": 2323,
      "羽皇": 2324,
      "羽翼": 2325,
      "羽人方": 2326,
      "羽夷自": 2327,
      "老年病": 2328,
      "考虑": 2329,
      "考察其组织": 2330,
      "而成": 2331,
      "而言": 2332,
      "而他们": 2333,
      "而这种": 2334,
      "而从其": 2335,
      "而只是": 2336,
      "而帝尊兴师": 2337,
      "而生的诸": 2338,
      "职员混": 2339,
      "联络中断": 2340,
      "聚集": 2341,
      "肉身躯": 2342,
      "胜纪": 2343,
      "能让": 2344,
      "能进": 2345,
      "能造": 2346,
      "能通过": 2347,
      "能从他们": 2348,
      "能像人类": 2349,
      "能在真": 2350,
      "能够使得": 2351,
      "能源供给": 2352,
      "能电磁": 2353,
      "脑再度": 2354,
      "腾骁": 2355,
      "自身": 2356,
      "自云是": 2357,
      "自此之后": 2358,
      "至其他世界": 2359,
      "至今未": 2360,
      "花费": 2361,
      "若干": 2362,
      "若不是": 2363,
      "范其射": 2364,
      "药典": 2365,
      "营中": 2366,
      "蕴含着": 2367,
      "虽不排": 2368,
      "融合": 2369,
      "行高": 2370,
      "行智慧": 2371,
      "行取阅": 2372,
      "衔枝种": 2373,
      "表现的": 2374,
      "衰竭所带来的": 2375,
      "袋的事": 2376,
      "被认": 2377,
      "被钉": 2378,
      "被认为": 2379,
      "被寄生": 2380,
      "被封禁": 2381,
      "被我的": 2382,
      "被抹去的": 2383,
      "装备了步离人": 2384,
      "要令宿主": 2385,
      "要分支": 2386,
      "要慢得多": 2387,
      "见信安": 2388,
      "见的无形目": 2389,
      "觉察到自己": 2390,
      "解释": 2391,
      "解之处": 2392,
      "解剖学": 2393,
      "解开束缚": 2394,
      "让他们": 2395,
      "记述": 2396,
      "记不记得": 2397,
      "讳被抹去的": 2398,
      "论上来": 2399,
      "证明": 2400,
      "词条": 2401,
      "试图占夺": 2402,
      "诚意": 2403,
      "话说": 2404,
      "该不记得": 2405,
      "详细政治": 2406,
      "诱惑人类": 2407,
      "请你自": 2408,
      "负责": 2409,
      "质军团": 2410,
      "贸易": 2411,
      "资源与人": 2412,
      "赶快把": 2413,
      "足趾": 2414,
      "足以推": 2415,
      "足可上溯至仙舟": 2416,
      "足矣维持": 2417,
      "转化能量的": 2418,
      "转变为长生种的": 2419,
      "辨别岁阳个体": 2420,
      "达了阿毅他们": 2421,
      "达到250": 2422,
      "过任何": 2423,
      "近距离时": 2424,
      "近乎鬼": 2425,
      "还不止": 2426,
      "还对你摆": 2427,
      "这个": 2428,
      "这使得": 2429,
      "这也是": 2430,
      "这位佚": 2431,
      "这便是": 2432,
      "这可是": 2433,
      "这封信后": 2434,
      "这花费": 2435,
      "远距离时": 2436,
      "通的": 2437,
      "通信接": 2438,
      "速俯冲": 2439,
      "造司里": 2440,
      "道你还": 2441,
      "避开人类": 2442,
      "那样": 2443,
      "那时候": 2444,
      "那个身": 2445,
      "那位名": 2446,
      "部肌肉": 2447,
      "都搞不": 2448,
      "都维持": 2449,
      "都变没": 2450,
      "都持有": 2451,
      "都能像人类": 2452,
      "鄙人主动": 2453,
      "配能量的": 2454,
      "释放换气": 2455,
      "重物一般": 2456,
      "镇伏岁阳": 2457,
      "镇压于各": 2458,
      "间再也未": 2459,
      "队跃迁": 2460,
      "队中三人": 2461,
      "防范其射": 2462,
      "阶段": 2463,
      "阶级之下": 2464,
      "陆离的生命": 2465,
      "陆行智慧": 2466,
      "降临": 2467,
      "除有少数": 2468,
      "陶德": 2469,
      "随之而": 2470,
      "随情感": 2471,
      "集的残缺": 2472,
      "雇佣兵": 2473,
      "露了本": 2474,
      "青春": 2475,
      "青碧色": 2476,
      "面前": 2477,
      "顶端高": 2478,
      "顺带一提": 2479,
      "频段": 2480,
      "首先我": 2481,
      "驯服宿主": 2482,
      "骨骼": 2483,
      "高飞行": 2484,
      "高能电磁": 2485,
      "魂精科": 2486,
      "鸟类的生理": 2487,
      "龙泉老": 2488,
      "岁阳亚种": 2489,
      "岁阳从未": 2490,
      "岁阳现身": 2491,
      "岁阳便在": 2492,
      "岁阳喜好": 2493,
      "岁阳感到满": 2494,
      "岁阳是无固定": 2495,
      "岁阳被认": 2496,
      "岁阳试图占夺": 2497,
      "岁阳驯服宿主": 2498,
      "他们体内": 2499,
      "他们掌握": 2500,
      "他们总算是": 2501,
      "他们不老": 2502,
      "他们未必打": 2503,
      "他们能在真": 2504,
      "他们装备了步离人": 2505,
      "造翼者流离": 2506,
      "造翼者是联盟历史悠久的": 2507,
      "造翼者严格": 2508,
      "造翼者及其军": 2509,
      "造翼者在星际": 2510,
      "造翼者擅长": 2511,
      "造翼者第二次": 2512,
      "仙舟英雄": 2513,
      "仙舟住民": 2514,
      "仙舟工匠以无形": 2515,
      "仙舟提供能量": 2516,
      "狐人这种": 2517,
      "狐人患者": 2518,
      "狐人直到": 2519,
      "狐人与步离人": 2520,
      "狐人因此": 2521,
      "...)": 2522,
      "...」": 2523,
      "记录中断": 2524,
      "记录中称": 2525,
      "记录前略": 2526,
      "记录显示": 2527,
      "记录证明": 2528,
      "穹桑毁灭": 2529,
      "穹桑与建木": 2530,
      "它们通过": 2531,
      "它们穿透": 2532,
      "它们通常": 2533,
      "它们与精": 2534,
      "它们便暴": 2535,
      "它们的痕迹": 2536,
      "它们能通过": 2537,
      "造翼者的羽皇": 2538,
      "造翼者的解剖学": 2539,
      "造翼者的详细政治": 2540,
      "造翼者的雇佣兵": 2541,
      "全能干细胞失去": 2542,
      "生物均被称为": 2543,
      "能量生成": 2544,
      "我们靠": 2545,
      "我们切除了": 2546,
      "我们做过": 2547,
      "我们在银": 2548,
      "我们完全无法": 2549,
      "肝脏比起": 2550,
      "」。「": 2551,
      "人类智慧种族": 2552,
      "人类的身躯": 2553,
      "宿主的数量": 2554,
      "无形者": 2555,
      "无形无根": 2556,
      "码头出没": 2557,
      "这些医学报告": 2558,
      "这些汇报给": 2559,
      "狐人的自然死亡": 2560,
      "狐人的肉体": 2561,
      "一些不可": 2562,
      "一些步离人": 2563,
      "一些相关": 2564,
      "一些对他们": 2565,
      "不可考": 2566,
      "不可胜纪": 2567,
      "其他器官": 2568,
      "其他智慧种族": 2569,
      "失去自由": 2570,
      "失去肝脏比起": 2571,
      "失去其他器官": 2572,
      "按照目前": 2573,
      "按照玉阙太卜": 2574,
      "按照传统": 2575,
      "按照公司的": 2576,
      "认为帝弓": 2577,
      "认为这件事": 2578,
      "长生不死": 2579,
      "步离人打仗的": 2580,
      "不具备飞行能力的": 2581,
      "不具有飞行能力的": 2582,
      "不具热能": 2583,
      "世界中": 2584,
      "世界也许": 2585,
      "任何岁阳个体": 2586,
      "任何不具备飞行能力的": 2587,
      "使得衰老": 2588,
      "力的足趾": 2589,
      "司的记载": 2590,
      "司的推测": 2591,
      "司的职员混": 2592,
      "器官开始": 2593,
      "寄生从宿主": 2594,
      "寄生宿主的数量": 2595,
      "时间极短": 2596,
      "时间点突": 2597,
      "通过快速": 2598,
      "岁阳一族变化": 2599,
      "岁阳一族是联盟历史悠久的": 2600,
      "岁阳一族也遭": 2601,
      "岁阳一族在原始": 2602,
      "他们的能源供给": 2603,
      "他们的骨骼": 2604,
      "穹桑的五大": 2605,
      "穹桑的世界也许": 2606,
      "这些全能干细胞的数量": 2607,
      "一样长": 2608,
      "上的位置": 2609,
      "为什么他会": 2610,
      "为什么通信接": 2611,
      "也许狐人的全能干细胞": 2612,
      "会在全能干细胞失去": 2613,
      "体内的岁阳": 2614,
      "体内器官开始": 2615,
      "依然能够使得": 2616,
      "军团再度": 2617,
      "分类所示": 2618,
      "功能后的": 2619,
      "功能衰竭所带来的": 2620,
      "发现他们在": 2621,
      "变成了一": 2622,
      "变成那样": 2623,
      "可以彼此": 2624,
      "帝弓光矢": 2625,
      "帝弓神话": 2626,
      "戊时正": 2627,
      "戊时二刻": 2628,
      "戊时三刻": 2629,
      "接触到了": 2630,
      "接触上溯至仙舟": 2631,
      "接触足可上溯至仙舟": 2632,
      "文明看来拥有": 2633,
      "文明经历了一": 2634,
      "文明记录中称": 2635,
      "某种生物学上的": 2636,
      "沉墟庚字三号": 2637,
      "的原因": 2638,
      "的原文附": 2639,
      "的原理大概": 2640,
      "类似的囚": 2641,
      "类似的结构": 2642,
      "类似穹桑的世界也许": 2643,
      "自由转化能量的": 2644,
      "虽然那些": 2645,
      "虽然岁阳被认": 2646,
      "虽然记录显示": 2647,
      "距离镇伏岁阳": 2648,
      "岁阳的封印": 2649,
      "岁阳的个性": 2650,
      "岁阳个体之间": 2651,
      "丰饶民战争中": 2652,
      "丰饶孽物中罕": 2653,
      "能量的本领": 2654,
      "一切羽民": 2655,
      "一切来自": 2656,
      "三人联络中断": 2657,
      "不能公开": 2658,
      "与造翼者的接触足可上溯至仙舟": 2659,
      "中能永远": 2660,
      "云骑巡防": 2661,
      "云骑军与造翼者的": 2662,
      "价值不大的": 2663,
      "但我发觉": 2664,
      "但我怕变老": 2665,
      "你的了": 2666,
      "你的老师": 2667,
      "你还没多大": 2668,
      "依旧需要": 2669,
      "依旧蕴含着": 2670,
      "关于它们的痕迹": 2671,
      "其中的原理大概": 2672,
      "其中依旧蕴含着": 2673,
      "具有一定": 2674,
      "具有刺激": 2675,
      "决定了两者": 2676,
      "准备后事": 2677,
      "几乎毁灭": 2678,
      "几乎在转": 2679,
      "出现各种": 2680,
      "分化的功能": 2681,
      "分化功能后的": 2682,
      "到的知识": 2683,
      "前往侦察": 2684,
      "即是射下光矢": 2685,
      "及至与丰饶民的": 2686,
      "后的复生速度": 2687,
      "启航前的": 2688,
      "启航的理由": 2689,
      "在了那东西": 2690,
      "在了这封信后": 2691,
      "多器官中都": 2692,
      "多器官功能衰竭所带来的": 2693,
      "大仙舟的幽囚狱": 2694,
      "大多数潜在客": 2695,
      "如果我没": 2696,
      "如果你最近": 2697,
      "学者与书": 2698,
      "学者拥护的": 2699,
      "封印着这": 2700,
      "少数学者拥护的": 2701,
      "就是对宿主": 2702,
      "就是多器官功能衰竭所带来的": 2703,
      "居于顶端高": 2704,
      "巡防记录": 2705,
      "希望能从他们": 2706,
      "开始痴迷": 2707,
      "当时我没": 2708,
      "当时我们切除了": 2709,
      "形体的纯能量": 2710,
      "形体的岁阳感到满": 2711,
      "性的行为": 2712,
      "患者往往": 2713,
      "情报提及": 2714,
      "情报待更": 2715,
      "意思了": 2716,
      "意思的事": 2717,
      "我得赶快把": 2718,
      "我说尽了好": 2719,
      "战争中表现的": 2720,
      "掠夺资源与人": 2721,
      "接近鸟类的生理": 2722,
      "操纵能量生成": 2723,
      "操纵能量的本领": 2724,
      "整个肝脏后的复生速度": 2725,
      "星海的羽民": 2726,
      "最终结局一样": 2727,
      "最近我总算是": 2728,
      "某个造翼者的雇佣兵": 2729,
      "活得那么": 2730,
      "流离星海的羽民": 2731,
      "的主人": 2732,
      "的主要分支": 2733,
      "的囚笼束缚": 2734,
      "的强弱": 2735,
      "的强大能力": 2736,
      "的树状仿生": 2737,
      "的诸多器官中都": 2738,
      "直到他们": 2739,
      "相关记述": 2740,
      "瞧见他那": 2741,
      "程度的相斥": 2742,
      "组织人马": 2743,
      "给我看看": 2744,
      "肉体消耗": 2745,
      "衰老太可怕": 2746,
      "许多造翼者流离": 2747,
      "许多文明记录中称": 2748,
      "跃迁的": 2749,
      "这件事就死": 2750,
      "通常为泛": 2751,
      "那么专利": 2752,
      "那些不能公开": 2753,
      "酉时正": 2754,
      "酉时二刻": 2755,
      "阿毅他们全都": 2756,
      "随着穹桑毁灭": 2757,
      "随着寄生宿主的数量": 2758,
      "雷奥登老师": 2759,
      "需要注意以下两": 2760,
      "造翼者们栖居于": 2761,
      "造翼者们能进": 2762,
      "仙舟舰队启航的理由": 2763,
      "狐人在此类": 2764,
      "狐人的全能干细胞并非": 2765,
      "长生种的最终结局一样": 2766,
      "朱明仙舟受此": 2767,
      "朱明仙舟封印着这": 2768,
      "朱明的人唤它": 2769,
      "朱明的人最爱": 2770,
      "......」": 2771,
      "......?」": 2772,
      "这些全能干细胞会不断": 2773,
      "这些全能干细胞会彻底停摆": 2774,
      "沉墟庚字二号": 2775,
      "沉墟庚字六号": 2776,
      "丰饶民的贸易": 2777,
      "生物学上的亲缘": 2778,
      "一方面他们掌握": 2779,
      "切除了狐人患者": 2780,
      "复生速度要慢得多": 2781,
      "大部分人都会在": 2782,
      "大部分狐人在此类": 2783,
      "天之外海来": 2784,
      "玉阙太卜司观测": 2785,
      "短时间内得到治": 2786,
      "307岁": 2787,
      "4天内死亡": 2788,
      "450岁之间": 2789,
      "400公里": 2790,
      "一度与仙舟": 2791,
      "一生中的": 2792,
      "一神奇的能量": 2793,
      "七情六欲": 2794,
      "三十二": 2795,
      "上长满了": 2796,
      "不也留着": 2797,
      "不及准备后事": 2798,
      "不完全的": 2799,
      "不忙的话": 2800,
      "不知道你还": 2801,
      "不至于来": 2802,
      "不全的史料": 2803,
      "与之嬉戏": 2804,
      "与其结盟": 2805,
      "与爆发力惊": 2806,
      "与盔甲": 2807,
      "与岁阳的接触上溯至仙舟": 2808,
      "世外妖魔": 2809,
      "中位数是": 2810,
      "中学习知识": 2811,
      "中搜集的残缺": 2812,
      "中提及的正是": 2813,
      "为了向天之外海": 2814,
      "为其生产": 2815,
      "为缓慢": 2816,
      "为我们所用": 2817,
      "乃得羽人方": 2818,
      "么个妖怪": 2819,
      "九大仙舟漂航": 2820,
      "也会渐渐": 2821,
      "也使得他们能在真": 2822,
      "了冷脸": 2823,
      "了造翼者的故土": 2824,
      "了穹桑的大军": 2825,
      "了不少经费": 2826,
      "事实上": 2827,
      "事故案牍": 2828,
      "二十多年前": 2829,
      "于基准人类": 2830,
      "于这一神奇的能量": 2831,
      "于宇宙中": 2832,
      "亡而终": 2833,
      "产生差异": 2834,
      "人们开始痴迷": 2835,
      "人员滞留": 2836,
      "人的突击": 2837,
      "人尚未转变为长生种的": 2838,
      "仅凭浅薄": 2839,
      "从结论上来": 2840,
      "他又爬起": 2841,
      "以换取它": 2842,
      "以败亡而终": 2843,
      "以穿透的迷": 2844,
      "仪器会观测": 2845,
      "众多光怪": 2846,
      "会储存大量": 2847,
      "会变得较": 2848,
      "会等级分配": 2849,
      "会逐渐减少": 2850,
      "会不可扼制地": 2851,
      "会生长出新": 2852,
      "会令不具形体的岁阳感到满": 2853,
      "会以一团青碧色": 2854,
      "伤都会在短时间内得到治": 2855,
      "似重犯者": 2856,
      "但它绝少出现": 2857,
      "但总归希望": 2858,
      "但现在我得": 2859,
      "但若要令宿主": 2860,
      "但它们依然能够使得": 2861,
      "但依然足矣维持": 2862,
      "但从未有过": 2863,
      "但很快它们便暴": 2864,
      "但星海间再也未": 2865,
      "体重和体力的": 2866,
      "作为无形目生物": 2867,
      "你就和我说": 2868,
      "你应该不记得": 2869,
      "你也许是正": 2870,
      "依照其社": 2871,
      "促使这些全能干细胞在某个": 2872,
      "保持活力": 2873,
      "修复狐人的肉体": 2874,
      "修葺家园": 2875,
      "修长的双足": 2876,
      "倚之成功击溃": 2877,
      "做个市场调": 2878,
      "像宇宙一样长": 2879,
      "充满攻击性的": 2880,
      "光学影像": 2881,
      "光的频段": 2882,
      "共计三十二": 2883,
      "兴盛生长": 2884,
      "其成神之兆": 2885,
      "其最高飞行": 2886,
      "其首脑再度": 2887,
      "内的能量平衡": 2888,
      "再有意思的事": 2889,
      "再次前往": 2890,
      "几小时内就": 2891,
      "出发之前": 2892,
      "出种种幻象": 2893,
      "分子生物学上的亲缘": 2894,
      "切断了建木": 2895,
      "切证据说": 2896,
      "则是地位无": 2897,
      "则自诩": 2898,
      "则依次是卫天": 2899,
      "判令其永世为": 2900,
      "到一些普通": 2901,
      "到步离人和狐人在": 2902,
      "到某种高能电磁": 2903,
      "到不少钱": 2904,
      "制度已经": 2905,
      "制造却极": 2906,
      "前数年": 2907,
      "办成这件事就死": 2908,
      "化外民搞不": 2909,
      "医士完整": 2910,
      "医案中": 2911,
      "十王司的记载": 2912,
      "升格而成": 2913,
      "博识学会和": 2914,
      "却依然没办法": 2915,
      "压制其飞行机动性": 2916,
      "原因聚集": 2917,
      "去至少六千": 2918,
      "反物质军团": 2919,
      "发展过任何": 2920,
      "发行的医书和": 2921,
      "发达的背": 2922,
      "取任何稿酬": 2923,
      "取了他的腰": 2924,
      "受重创": 2925,
      "古国时代": 2926,
      "另有一些不可": 2927,
      "另一方面他们的能源供给": 2928,
      "可支配能量的": 2929,
      "可能都持有": 2930,
      "可见光的频段": 2931,
      "可接近400公里": 2932,
      "可再低的种种": 2933,
      "司命是由": 2934,
      "司还是我": 2935,
      "吃回扣了吧": 2936,
      "吃掉七情六欲": 2937,
      "名的仙舟英雄": 2938,
      "后勤部的": 2939,
      "向仙舟祈求居停之所": 2940,
      "吩咐队中三人": 2941,
      "含有特殊的": 2942,
      "周期中能永远": 2943,
      "和损伤都会在短时间内得到治": 2944,
      "和所有长生种的最终结局一样": 2945,
      "和星际海盗": 2946,
      "和武器制造却极": 2947,
      "和肌肉含有特殊的": 2948,
      "和你一样的想法": 2949,
      "和几位丹鼎司的职员混": 2950,
      "咱们工造司里": 2951,
      "啼颂种": 2952,
      "善用自身": 2953,
      "因素促使这些全能干细胞在某个": 2954,
      "因为某种原因聚集": 2955,
      "在狐人一生中的": 2956,
      "在造翼者的文化中": 2957,
      "在肝脏处": 2958,
      "在狐人的年龄": 2959,
      "在大量医案中": 2960,
      "在自己短暂的生命": 2961,
      "在短时间内换气": 2962,
      "在三次丰饶民战争中": 2963,
      "均发现他们装备了步离人": 2964,
      "均从属于某个造翼者的雇佣兵": 2965,
      "基于其操纵能量的本领": 2966,
      "士及仙方若干": 2967,
      "大脑中学习知识": 2968,
      "失灵机巧鸟": 2969,
      "失联的地方": 2970,
      "夺舍之祸": 2971,
      "奴役其他智慧种族": 2972,
      "好几斤龙泉老": 2973,
      "如暴食": 2974,
      "如今所有流离星海的羽民": 2975,
      "如其生物学分类所示": 2976,
      "孔雀天使": 2977,
      "孤航时代": 2978,
      "学技术难": 2979,
      "学士索取任何稿酬": 2980,
      "孵育种": 2981,
      "它曾一度与仙舟": 2982,
      "它能避开人类": 2983,
      "完成具有刺激": 2984,
      "定属于丰饶孽物": 2985,
      "密科技具有一定": 2986,
      "寿终正寝": 2987,
      "小队的人": 2988,
      "少量记录证明": 2989,
      "就可以辨别岁阳个体": 2990,
      "居其下的则依次是卫天": 2991,
      "左右自由意志": 2992,
      "已过去至少六千": 2993,
      "已全数清查": 2994,
      "帝王派出了我们": 2995,
      "帮我做个市场调": 2996,
      "年时光": 2997,
      "并无人员滞留": 2998,
      "并可以正常康": 2999,
      "并不能为我们所用": 3000,
      "并伴生有一对": 3001,
      "并哺育一切羽民": 3002,
      "度依赖掠夺": 3003,
      "引导穹桑的兴盛生长": 3004,
      "形成更大的": 3005,
      "彼时九大仙舟漂航": 3006,
      "微妙但巨大的差异": 3007,
      "心智的过程": 3008,
      "怎么夸奖你": 3009,
      "性使用的过程": 3010,
      "恨悲喜": 3011,
      "恰恰相反": 3012,
      "患最深": 3013,
      "您别说这个": 3014,
      "情形见上": 3015,
      "感应神经系统": 3016,
      "愿意分享给我一些对他们": 3017,
      "成为佣兵和星际海盗": 3018,
      "我抵达了阿毅他们": 3019,
      "我明明砍": 3020,
      "我读取了他的腰": 3021,
      "我认为其中的原理大概": 3022,
      "我目前认为这件事": 3023,
      "我决定组织人马": 3024,
      "我不想长生不死": 3025,
      "我动身出发之前": 3026,
      "我听说朱明仙舟封印着这": 3027,
      "我将报告的原文附": 3028,
      "或美貌": 3029,
      "或与其他丰饶民的贸易": 3030,
      "战斗需要注意以下两": 3031,
      "战局势必以败亡而终": 3032,
      "所掌握的资": 3033,
      "所以失去整个肝脏后的复生速度": 3034,
      "所幸最终仙舟工匠以无形": 3035,
      "手术后": 3036,
      "手中搞到一些普通": 3037,
      "找到的大多数潜在客": 3038,
      "振动等现象": 3039,
      "掉脑袋的事": 3040,
      "接撤离群": 3041,
      "推移重物一般": 3042,
      "摧毁了造翼者的故土": 3043,
      "擅于发力的足趾": 3044,
      "操控血肉身躯": 3045,
      "改变区域内的能量平衡": 3046,
      "放弃以本文向克利欧": 3047,
      "斫断建木": 3048,
      "断不可信": 3049,
      "断出他们的文明经历了一": 3050,
      "无论是丹鼎": 3051,
      "时速可接近400公里": 3052,
      "时早有准备": 3053,
      "明求取长生": 3054,
      "明二者有关": 3055,
      "星历5320年前后": 3056,
      "是相通的": 3057,
      "是关于狐人的": 3058,
      "是天青石圣巢": 3059,
      "智能生物": 3060,
      "曾发现关于它们的痕迹": 3061,
      "有着某种生物学上的": 3062,
      "有羽亚种": 3063,
      "有两种解释": 3064,
      "有所行动": 3065,
      "权全是你的了": 3066,
      "来赚到不少钱": 3067,
      "来到先祖面前": 3068,
      "来取悦体内的岁阳": 3069,
      "枝的是天青石圣巢": 3070,
      "某位英雄解开束缚": 3071,
      "棵奇怪的树": 3072,
      "此说断不可信": 3073,
      "此处即是少数学者拥护的": 3074,
      "死去之前都维持": 3075,
      "残党逃脱": 3076,
      "气泡空腔": 3077,
      "永葆青春": 3078,
      "汲取爱恨悲喜": 3079,
      "没有确切证据说": 3080,
      "河中能找到的大多数潜在客": 3081,
      "派出的三人联络中断": 3082,
      "消隐匿形": 3083,
      "清楚是什么因素促使这些全能干细胞在某个": 3084,
      "灌了他们好几斤龙泉老": 3085,
      "灵长目": 3086,
      "然后瞧见了": 3087,
      "然失效的": 3088,
      "特征呈现接近鸟类的生理": 3089,
      "甚至还对你摆": 3090,
      "用他们的话说": 3091,
      "由肝脏生成": 3092,
      "的祖先": 3093,
      "的神明求取长生": 3094,
      "的科学技术难": 3095,
      "的覆灭": 3096,
      "的试验": 3097,
      "的阵营中": 3098,
      "的宿主会不可扼制地": 3099,
      "的关系是": 3100,
      "的武器与盔甲": 3101,
      "的体积大小": 3102,
      "目击疑似重犯者": 3103,
      "相较于基准人类": 3104,
      "相当程度的商业价值": 3105,
      "真够危险的": 3106,
      "眼间摧毁了造翼者的故土": 3107,
      "着能跃迁的": 3108,
      "着一层仅凭浅薄": 3109,
      "着年轻时的容颜": 3110,
      "神策府": 3111,
      "空中飞行并动作": 3112,
      "笼罩着一层仅凭浅薄": 3113,
      "算活得像宇宙一样长": 3114,
      "结冰和振动等现象": 3115,
      "绝大多数阶段": 3116,
      "羽夷自天之外海来": 3117,
      "考虑到步离人和狐人在": 3118,
      "考察其组织形式": 3119,
      "而言价值不大的": 3120,
      "而他们则自诩": 3121,
      "而这种微妙但巨大的差异": 3122,
      "而从其显形时": 3123,
      "而只是因为某种原因聚集": 3124,
      "而帝尊兴师以拒": 3125,
      "而生的诸多变化": 3126,
      "能让我们靠": 3127,
      "能造出种种幻象": 3128,
      "自云是无形无根": 3129,
      "至今未归": 3130,
      "若不是帝弓光矢": 3131,
      "虽不排除有少数": 3132,
      "行高速俯冲": 3133,
      "被钉在了那东西": 3134,
      "被认为是": 3135,
      "被寄生的宿主会不可扼制地": 3136,
      "见信安好": 3137,
      "见的无形目生命": 3138,
      "让他们给我看看": 3139,
      "讳被抹去的帝王派出了我们": 3140,
      "请你自行取阅": 3141,
      "负责引导穹桑的兴盛生长": 3142,
      "足以推断出他们的文明经历了一": 3143,
      "近距离时压制其飞行机动性": 3144,
      "近乎鬼神的能力": 3145,
      "还不止一棵": 3146,
      "这使得岁阳一族在原始": 3147,
      "这也是它被称为": 3148,
      "这位佚名的仙舟英雄": 3149,
      "这可是掉脑袋的事": 3150,
      "这花费了不少经费": 3151,
      "远距离时防范其射": 3152,
      "那时候你还没多大": 3153,
      "那个身上长满了": 3154,
      "那位名讳被抹去的帝王派出了我们": 3155,
      "部肌肉群": 3156,
      "都搞不清楚是什么因素促使这些全能干细胞在某个": 3157,
      "都变没意思了": 3158,
      "都能像人类推移重物一般": 3159,
      "鄙人主动放弃以本文向克利欧": 3160,
      "镇压于各大仙舟的幽囚狱": 3161,
      "队跃迁至其他世界": 3162,
      "陆行智慧生物均被称为": 3163,
      "随之而来的": 3164,
      "随情感而生的诸多变化": 3165,
      "露了本性": 3166,
      "首先我声明": 3167,
      "岁阳从未发展过任何": 3168,
      "岁阳现身时": 3169,
      "岁阳便在其列": 3170,
      "岁阳喜好寄生": 3171,
      "岁阳是无固定形体的纯能量": 3172,
      "岁阳试图占夺人类的身躯": 3173,
      "岁阳驯服宿主心智的过程": 3174,
      "他们体内的诸多器官中都": 3175,
      "他们总算是被我的": 3176,
      "他们不老的容颜": 3177,
      "他们未必打算活得像宇宙一样长": 3178,
      "造翼者是联盟历史悠久的大敌": 3179,
      "造翼者严格依照其社": 3180,
      "造翼者及其军队跃迁至其他世界": 3181,
      "造翼者在星际战争中表现的": 3182,
      "造翼者擅长飞行": 3183,
      "造翼者第二次入侵仙舟舰队": 3184,
      "狐人这种不完全的": 3185,
      "狐人直到死去之前都维持": 3186,
      "狐人与步离人有着某种生物学上的": 3187,
      "狐人因此变成": 3188,
      "穹桑与建木的关系是": 3189,
      "它们通过寄生从宿主": 3190,
      "它们穿透穹顶": 3191,
      "它们通常会以一团青碧色": 3192,
      "它们与精密科技具有一定": 3193,
      "它们能通过操纵能量生成": 3194,
      "造翼者的解剖学特征呈现接近鸟类的生理": 3195,
      "造翼者的详细政治制度已经": 3196,
      "我们做过一些相关": 3197,
      "我们在银河中能找到的大多数潜在客": 3198,
      "我们完全无法考察其组织形式": 3199,
      "这些医学报告的内容": 3200,
      "这些汇报给神策府": 3201,
      "狐人的自然死亡和所有长生种的最终结局一样": 3202,
      "一些步离人的肝脏": 3203,
      "失去自由分化的功能": 3204,
      "失去肝脏比起失去其他器官": 3205,
      "按照目前所掌握的资": 3206,
      "按照玉阙太卜司的推测": 3207,
      "按照公司的情报提及": 3208,
      "认为帝弓司命是由": 3209,
      "步离人打仗的时候": 3210,
      "不具有飞行能力的智能生物": 3211,
      "任何岁阳个体都能像人类推移重物一般": 3212,
      "任何不具备飞行能力的陆行智慧生物均被称为": 3213,
      "使得衰老和损伤都会在短时间内得到治": 3214,
      "时间点突然失效的": 3215,
      "通过快速释放换气": 3216,
      "岁阳一族变化万端": 3217,
      "岁阳一族是联盟历史悠久的宿敌": 3218,
      "岁阳一族也遭受重创": 3219,
      "他们的骨骼和肌肉含有特殊的": 3220,
      "穹桑的五大阶级之下": 3221,
      "这些全能干细胞的数量会逐渐减少": 3222,
      "为什么他会变成那样": 3223,
      "为什么通信接不上": 3224,
      "会在全能干细胞失去分化功能后的": 3225,
      "体内器官开始出现各种": 3226,
      "军团再度有所行动": 3227,
      "发现他们在几小时内就": 3228,
      "变成了一个巨大的": 3229,
      "接触到了众多光怪": 3230,
      "文明看来拥有近乎鬼神的能力": 3231,
      "类似的囚牢吗": 3232,
      "类似的结构也使得他们能在真": 3233,
      "类似穹桑的世界也许还不止一棵": 3234,
      "自由转化能量的类型": 3235,
      "虽然岁阳被认定属于丰饶孽物": 3236,
      "距离镇伏岁阳已过去至少六千": 3237,
      "岁阳的个性也会渐渐": 3238,
      "岁阳个体之间可以彼此": 3239,
      "丰饶孽物中罕见的无形目生命": 3240,
      "一切来自其他世界": 3241,
      "与造翼者的接触足可上溯至仙舟启航前的": 3242,
      "云骑巡防分队": 3243,
      "云骑军与造翼者的战斗需要注意以下两": 3244,
      "但我发觉其中依旧蕴含着": 3245,
      "依旧需要在短时间内换气": 3246,
      "几乎毁灭罗浮": 3247,
      "几乎在转眼间摧毁了造翼者的故土": 3248,
      "即是射下光矢斫断建木": 3249,
      "如果我没办成这件事就死": 3250,
      "如果你最近不忙的话": 3251,
      "学者与书记": 3252,
      "就是对宿主肉体消耗": 3253,
      "就是多器官功能衰竭所带来的死灭": 3254,
      "居于顶端高枝的是天青石圣巢": 3255,
      "希望能从他们手中搞到一些普通": 3256,
      "当时我没怎么夸奖你": 3257,
      "当时我们切除了一些步离人的肝脏": 3258,
      "患者往往会在全能干细胞失去分化功能后的": 3259,
      "情报待更新": 3260,
      "我得赶快把这些汇报给神策府": 3261,
      "我说尽了好话": 3262,
      "掠夺资源与人口": 3263,
      "最近我总算是和几位丹鼎司的职员混": 3264,
      "活得那么长": 3265,
      "的囚笼束缚了它们": 3266,
      "的树状仿生世界中": 3267,
      "相关记述中提及的正是": 3268,
      "瞧见他那棵奇怪的树": 3269,
      "衰老太可怕了": 3270,
      "许多造翼者流离于宇宙中": 3271,
      "许多文明记录中称之为": 3272,
      "通常为泛人类智慧种族": 3273,
      "那么专利权全是你的了": 3274,
      "那些不能公开发行的医书和": 3275,
      "阿毅他们全都被钉在了那东西": 3276,
      "随着寄生宿主的数量增多": 3277,
      "造翼者们栖居于被称为": 3278,
      "造翼者们能进行高速俯冲": 3279,
      "狐人的全能干细胞并非由肝脏生成": 3280,
      "朱明仙舟受此患最深": 3281,
      "朱明的人最爱玩火了": 3282,
      "这些全能干细胞会不断修复狐人的肉体": 3283,
      "一方面他们掌握着能跃迁的": 3284,
      "切除了狐人患者的整个肝脏": 3285,
      "大部分人都会在体内器官开始出现各种": 3286,
      "大部分狐人在此类手术后": 3287,
      "玉阙太卜司观测到了": 3288,
      "450岁之间时": 3289,
      "不也留着类似的囚牢吗": 3290,
      "不知道你还记不记得": 3291,
      "不至于来不及准备后事": 3292,
      "与爆发力惊人的突击": 3293,
      "与岁阳的接触上溯至仙舟人尚未转变为长生种的": 3294,
      "世外妖魔族类": 3295,
      "中位数是307岁": 3296,
      "中搜集的残缺不全的史料": 3297,
      "为了向天之外海的神明求取长生": 3298,
      "乃得羽人方士及仙方若干": 3299,
      "事故案牍已全数清查": 3300,
      "于这一神奇的能量共生物": 3301,
      "人们开始痴迷于这一神奇的能量共生物": 3302,
      "从结论上来讲": 3303,
      "他又爬起来了": 3304,
      "以换取它的强大能力": 3305,
      "以穿透的迷雾": 3306,
      "仪器会观测到某种高能电磁": 3307,
      "会储存大量全能干细胞": 3308,
      "会变得较为缓慢": 3309,
      "会等级分配他们在": 3310,
      "会生长出新的肝脏": 3311,
      "会令不具形体的岁阳感到满足": 3312,
      "但它绝少出现在": 3313,
      "但总归希望在自己短暂的生命": 3314,
      "但现在我得说": 3315,
      "但若要令宿主觉察到自己": 3316,
      "但它们依然能够使得狐人直到死去之前都维持": 3317,
      "但依然足矣维持他们不老的容颜": 3318,
      "但从未有过狐人因此变成": 3319,
      "但很快它们便暴露了本性": 3320,
      "但星海间再也未曾发现关于它们的痕迹": 3321,
      "体重和体力的优势": 3322,
      "你就和我说过": 3323,
      "你也许是正确的": 3324,
      "倚之成功击溃了穹桑的大军": 3325,
      "其成神之兆即是射下光矢斫断建木": 3326,
      "其最高飞行时速可接近400公里": 3327,
      "其首脑再度被封禁": 3328,
      "再有意思的事都变没意思了": 3329,
      "分子生物学上的亲缘关系": 3330,
      "则是地位无可再低的种种": 3331,
      "判令其永世为仙舟提供能量": 3332,
      "化外民搞不到的知识": 3333,
      "医士完整切除了狐人患者的整个肝脏": 3334,
      "十王司的记载认为": 3335,
      "博识学会和步离人打仗的时候": 3336,
      "却依然没办法让他们给我看看": 3337,
      "反物质军团几乎在转眼间摧毁了造翼者的故土": 3338,
      "发达的背部肌肉群": 3339,
      "另有一些不可解之处": 3340,
      "另一方面他们的能源供给和武器制造却极": 3341,
      "可支配能量的多寡": 3342,
      "可能都持有和你一样的想法": 3343,
      "吩咐队中三人前往侦察": 3344,
      "周期中能永远保持活力": 3345,
      "咱们工造司里不也留着类似的囚牢吗": 3346,
      "善用自身体重和体力的优势": 3347,
      "在狐人一生中的绝大多数阶段": 3348,
      "在狐人的年龄达到250": 3349,
      "均发现他们装备了步离人的武器与盔甲": 3350,
      "均从属于某个造翼者的雇佣兵军团": 3351,
      "失灵机巧鸟共计三十二": 3352,
      "奴役其他智慧种族为其生产": 3353,
      "如今所有流离星海的羽民均从属于某个造翼者的雇佣兵军团": 3354,
      "学士索取任何稿酬的权利": 3355,
      "它曾一度与仙舟结盟": 3356,
      "它能避开人类可见光的频段": 3357,
      "完成具有刺激性的行为": 3358,
      "就可以辨别岁阳个体的强弱": 3359,
      "居其下的则依次是卫天种": 3360,
      "帮我做个市场调研吧": 3361,
      "并无人员滞留受困": 3362,
      "并可以正常康复出院": 3363,
      "彼时九大仙舟漂航天外": 3364,
      "感应神经系统随情感而生的诸多变化": 3365,
      "愿意分享给我一些对他们而言价值不大的": 3366,
      "我抵达了阿毅他们失联的地方": 3367,
      "我明明砍倒他了": 3368,
      "我读取了他的腰牌": 3369,
      "我认为其中的原理大概是相通的": 3370,
      "我目前认为这件事有两种解释": 3371,
      "我决定组织人马再次前往": 3372,
      "我听说朱明仙舟封印着这么个妖怪": 3373,
      "我将报告的原文附在了这封信后": 3374,
      "所以失去整个肝脏后的复生速度会变得较为缓慢": 3375,
      "所幸最终仙舟工匠以无形的囚笼束缚了它们": 3376,
      "接撤离群众举报": 3377,
      "擅于发力的足趾结构": 3378,
      "无论是丹鼎司还是我": 3379,
      "某位英雄解开束缚岁阳的封印": 3380,
      "此处即是少数学者拥护的所谓": 3381,
      "气泡空腔结构": 3382,
      "没有确切证据说明二者有关": 3383,
      "灌了他们好几斤龙泉老窖": 3384,
      "甚至还对你摆了冷脸": 3385,
      "的科学技术难以穿透的迷雾": 3386,
      "目击疑似重犯者在": 3387,
      "笼罩着一层仅凭浅薄的科学技术难以穿透的迷雾": 3388,
      "考虑到步离人和狐人在分子生物学上的亲缘关系": 3389,
      "而只是因为某种原因聚集在肝脏处": 3390,
      "能造出种种幻象诱惑人类": 3391,
      "自云是无形无根的族类": 3392,
      "若不是帝弓光矢降临": 3393,
      "虽不排除有少数残党逃脱": 3394,
      "被寄生的宿主会不可扼制地完成具有刺激性的行为": 3395,
      "足以推断出他们的文明经历了一次大倒退": 3396,
      "这使得岁阳一族在原始文明看来拥有近乎鬼神的能力": 3397,
      "这位佚名的仙舟英雄升格而成": 3398,
      "远距离时防范其射击": 3399,
      "那位名讳被抹去的帝王派出了我们的祖先": 3400,
      "都搞不清楚是什么因素促使这些全能干细胞在某个时间点突然失效的": 3401,
      "鄙人主动放弃以本文向克利欧学士索取任何稿酬的权利": 3402,
      "镇压于各大仙舟的幽囚狱中": 3403,
      "岁阳从未发展过任何科技": 3404,
      "岁阳是无固定形体的纯能量生物": 3405,
      "他们体内的诸多器官中都会储存大量全能干细胞": 3406,
      "造翼者严格依照其社会等级分配他们在": 3407,
      "造翼者在星际战争中表现的科技": 3408,
      "狐人与步离人有着某种生物学上的差异": 3409,
      "它们通过寄生从宿主大脑中学习知识": 3410,
      "它们通常会以一团青碧色的": 3411,
      "它们与精密科技具有一定程度的相斥": 3412,
      "它们能通过操纵能量生成光学影像": 3413,
      "造翼者的详细政治制度已经不可考": 3414,
      "我们做过一些相关的试验": 3415,
      "我们在银河中能找到的大多数潜在客户": 3416,
      "按照目前所掌握的资料": 3417,
      "认为帝弓司命是由这位佚名的仙舟英雄升格而成": 3418,
      "使得衰老和损伤都会在短时间内得到治愈": 3419,
      "他们的骨骼和肌肉含有特殊的气泡空腔结构": 3420,
      "发现他们在几小时内就变成了一个巨大的": 3421,
      "接触到了众多光怪陆离的生命": 3422,
      "类似的结构也使得他们能在真空中飞行并动作": 3423,
      "距离镇伏岁阳已过去至少六千年时光": 3424,
      "岁阳的个性也会渐渐成形": 3425,
      "云骑军与造翼者的战斗需要注意以下两点": 3426,
      "但我发觉其中依旧蕴含着相当程度的商业价值": 3427,
      "如果我没办成这件事就死了": 3428,
      "就是对宿主肉体消耗性使用的过程": 3429,
      "居于顶端高枝的是天青石圣巢的主人": 3430,
      "希望能从他们手中搞到一些普通化外民搞不到的知识": 3431,
      "患者往往会在全能干细胞失去分化功能后的3": 3432,
      "最近我总算是和几位丹鼎司的职员混熟了": 3433,
      "相关记述中提及的正是仙舟舰队启航的理由": 3434,
      "那些不能公开发行的医书和药典": 3435,
      "阿毅他们全都被钉在了那东西的枝条上": 3436,
      "造翼者们能进行高速俯冲与爆发力惊人的突击": 3437,
      "仪器会观测到某种高能电磁波反应": 3438,
      "但总归希望在自己短暂的生命周期中能永远保持活力": 3439,
      "但它们依然能够使得狐人直到死去之前都维持着年轻时的容颜": 3440,
      "却依然没办法让他们给我看看那些不能公开发行的医书和药典": 3441,
      "另一方面他们的能源供给和武器制造却极度依赖掠夺": 3442,
      "愿意分享给我一些对他们而言价值不大的医学报告": 3443
    },
    "merges": [
      ". .",
      "岁 阳",
      "他 们",
      "翼 者",
      "造 翼者",
      "仙 舟",
      "狐 人",
      ".. .",
      "记 录",
      "细 胞",
      "全 能",
      "穹 桑",
      "丰 饶",
      "它 们",
      "干 细胞",
      "造翼者 的",
      "全能 干细胞",
      "无 法",
      "生 物",
      "能 量",
      "声 纹",
      "我 们",
      "肝 脏",
      "转 译",
      "无法 转译",
      "声纹 无法转译",
      ", 「",
      "」 。",
      "人 类",
      "宿 主",
      "无 形",
      "码 头",
      "这 些",
      "飞 行",
      "狐人 的",
      "」 ,",
      "一 些",
      "不 可",
      "东 侧",
      "云 渡",
      "其 他",
      "印 戳",
      "失 去",
      "按 照",
      "步 离",
      "流 云渡",
      "科 技",
      "认 为",
      "长 岁",
      "长 生",
      "记录 印戳",
      "步离 人",
      "流云渡 东侧",
      ") ,",
      ") 。",
      "一 族",
      "不 具",
      "世 界",
      "什 么",
      "任 何",
      "使 得",
      "力 的",
      "司 的",
      "器 官",
      "大 的",
      "寄 生",
      "时 间",
      "朱 明",
      "死 亡",
      "目 前",
      "这 种",
      "通 过",
      "青 镞",
      ".. ..",
      "岁阳 一族",
      "他们 的",
      "... 【",
      "穹桑 的",
      "这些 全能干细胞",
      ") 、",
      "一 样",
      "三 号",
      "上 的",
      "个 体",
      "为 什么",
      "也 许",
      "会 在",
      "体 内",
      "依 然",
      "克 利",
      "军 团",
      "分 类",
      "功 能",
      "发 现",
      "变 成",
      "可 以",
      "墟 庚",
      "字 三号",
      "孽 物",
      "尚 未",
      "差 异",
      "帝 弓",
      "建 木",
      "戊 时",
      "报 告",
      "接 触",
      "政 治",
      "文 明",
      "智 慧",
      "枝 梢",
      "某 种",
      "沉 墟庚",
      "火 焰",
      "然 死亡",
      "生 命",
      "生 理",
      "的 人",
      "的 原",
      "称 为",
      "类 似",
      "结 构",
      "自 由",
      "自 然死亡",
      "虽 然",
      "被 称为",
      "距 离",
      "鸢 首",
      "岁阳 的",
      "岁阳 个体",
      "丰饶 民",
      "丰饶 孽物",
      "生物 学",
      "能量 的",
      "无形 目",
      "克利 欧",
      "5 0",
      ": 「",
      "? 」",
      "— —",
      "。 (",
      "。 )",
      "。 」",
      "』 ,",
      "一 切",
      "一 方",
      "三 人",
      "上 溯",
      "不 少",
      "不 能",
      "不 记",
      "与 造翼者的",
      "东 西",
      "个 肝脏",
      "中 断",
      "中 能",
      "丹 鼎",
      "久 的",
      "之 前",
      "之 后",
      "之 外",
      "之 民",
      "之 精",
      "之 间",
      "了 一",
      "了 几",
      "争 中",
      "二 刻",
      "云 骑",
      "亚 种",
      "从 未",
      "件 事",
      "价 值",
      "但 我",
      "体 的",
      "你 的",
      "你 还",
      "佣 兵",
      "依 旧",
      "光 矢",
      "全 的",
      "关 于",
      "关 系",
      "其 中",
      "其 起",
      "具 有",
      "再 度",
      "决 定",
      "准 备",
      "几 乎",
      "出 现",
      "出 的",
      "分 化",
      "切 除",
      "到 了",
      "到 的",
      "前 往",
      "劫 大",
      "医 学",
      "即 是",
      "卷 宗",
      "历 史",
      "及 至",
      "变 化",
      "后 的",
      "启 航",
      "在 了",
      "壬 字三号",
      "复 生",
      "多 数",
      "多 器官",
      "大 部",
      "大 量",
      "大 仙舟",
      "大 多数",
      "天 之外",
      "太 卜",
      "奥 登",
      "好 在",
      "如 果",
      "学 者",
      "宇 宙",
      "容 颜",
      "封 印",
      "小 字",
      "少 数",
      "尘 民",
      "就 是",
      "居 于",
      "属 于",
      "巡 防",
      "巨 大的",
      "希 望",
      "年 前",
      "底 部",
      "度 的",
      "开 始",
      "当 时",
      "形 体的",
      "很 快",
      "性 的",
      "总 算",
      "悠 久的",
      "患 者",
      "情 报",
      "意 思",
      "我 得",
      "我 没",
      "我 说",
      "战 争中",
      "所 有",
      "批 注",
      "换 气",
      "掌 握",
      "掠 夺",
      "探 明",
      "接 近",
      "提 及",
      "搞 不",
      "摘 要",
      "操 纵",
      "数 量",
      "整 个肝脏",
      "族 类",
      "时 代",
      "时 候",
      "星 海",
      "星 火",
      "星 球",
      "星 际",
      "是 联",
      "最 终",
      "最 近",
      "束 缚",
      "来 的",
      "某 个",
      "正 是",
      "武 器",
      "毁 灭",
      "毅 他们",
      "活 得",
      "流 离",
      "源 星球",
      "火 劫大",
      "玉 阙",
      "现 身",
      "生 成",
      "生 长",
      "癌 细胞",
      "的 主",
      "的 事",
      "的 囚",
      "的 强",
      "的 树",
      "的 诸",
      "的 过",
      "的 能量",
      "的 肝脏",
      "的 生命",
      "的 容颜",
      "的 数量",
      "盟 历史",
      "直 到",
      "相 关",
      "瞧 见",
      "知 识",
      "短 时间",
      "种 族",
      "种 的",
      "种 种",
      "程 度的",
      "穿 透",
      "组 织",
      "结 盟",
      "给 我",
      "维 持",
      "羽 民",
      "老 师",
      "肉 体",
      "肌 肉",
      "能 力",
      "能 力的",
      "自 己",
      "至 仙舟",
      "舰 队",
      "英 雄",
      "行 为",
      "行 小字",
      "衰 老",
      "观 测",
      "记 载",
      "许 多",
      "跃 迁",
      "身 躯",
      "这 件事",
      "通 常",
      "通 鉴",
      "速 度",
      "那 么",
      "那 些",
      "那 东西",
      "都 会在",
      "酉 时",
      "阿 毅他们",
      "随 着",
      "雷 奥登",
      "需 要",
      "他们 在",
      "造翼者 们",
      "仙舟 舰队",
      "仙舟 通鉴",
      "狐人 在",
      "丰饶 之民",
      "飞行 能力的",
      "狐人的 全能干细胞",
      "其他 世界",
      "长生 种的",
      "朱明 仙舟",
      "朱明 的人",
      "目前 尚未",
      ".... ..",
      "这些全能干细胞 会",
      "智慧 种族",
      "沉墟庚 字",
      "距离 时",
      "鸢首 壬字三号",
      "丰饶民 的",
      "生物学 上的",
      "一方 面",
      "上溯 至仙舟",
      "不记 得",
      "了几 行小字",
      "其起 源星球",
      "切除 了",
      "医学 报告",
      "卷宗 底部",
      "复生 速度",
      "大部 分",
      "天之外 海",
      "总算 是",
      "批注 了几行小字",
      "星火 之精",
      "是联 盟历史",
      "火劫大 战",
      "玉阙 太卜",
      "癌细胞 团",
      "的过 程",
      "短时间 内",
      "目前尚未 探明",
      "其起源星球 目前尚未探明",
      "卷宗底部 批注了几行小字",
      "是联盟历史 悠久的",
      "* 。",
      "0 0",
      "0 7",
      "0 年前",
      "2 50",
      "2 0年前",
      "3 07",
      "3 20年前",
      "4 天",
      "4 50",
      "4 00",
      "5 320年前",
      "? !",
      "、 「",
      "」 (",
      "」 ——",
      "」 、「",
      "』 。",
      "一 团",
      "一 定",
      "一 对",
      "一 层",
      "一 度",
      "一 提",
      "一 棵",
      "一 生",
      "一 神",
      "一 般",
      "七 情",
      "万 端",
      "三 刻",
      "三 十",
      "三 次",
      "上 来",
      "上 长",
      "下 两",
      "下 的",
      "下 枝梢",
      "下 光矢",
      "不 上",
      "不 也",
      "不 及",
      "不 完",
      "不 忙",
      "不 想",
      "不 排",
      "不 断",
      "不 是",
      "不 止",
      "不 死",
      "不 知",
      "不 老",
      "不 至",
      "不 全能",
      "不 大的",
      "不 全的",
      "与 之",
      "与 书",
      "与 人",
      "与 其",
      "与 爆",
      "与 盔",
      "与 精",
      "与 仙舟",
      "与 其他",
      "与 步离人",
      "与 建木",
      "与 岁阳的",
      "与 丰饶民的",
      "专 利",
      "世 为",
      "世 外",
      "业 价值",
      "两 种",
      "两 者",
      "严 格",
      "个 妖",
      "个 市",
      "个 性",
      "个 身",
      "个 巨大的",
      "中 位",
      "中 学",
      "中 搜",
      "中 搞",
      "中 的",
      "中 称",
      "中 罕",
      "中 都",
      "中 飞行",
      "中 三人",
      "中 提及",
      "为 了",
      "为 其",
      "为 泛",
      "为 缓",
      "为 我们",
      "为 某种",
      "为 无形目",
      "为 佣兵",
      "为 长生种的",
      "主 动",
      "举 报",
      "乃 得",
      "么 夸",
      "么 个妖",
      "之 下",
      "之 为",
      "之 兆",
      "之 处",
      "之 成",
      "之 所",
      "之 祸",
      "之 而",
      "乎 鬼",
      "九 大仙舟",
      "也 会",
      "也 是",
      "也 未",
      "也 遭",
      "也 使得",
      "习 知识",
      "书 和",
      "了 他",
      "了 冷",
      "了 吧",
      "了 好",
      "了 本",
      "了 他们",
      "了 它们",
      "了 造翼者的",
      "了 我们",
      "了 步离人",
      "了 穹桑的",
      "了 建木",
      "了 不少",
      "了 阿毅他们",
      "了 两者",
      "事 实",
      "事 故",
      "二 十",
      "二 号",
      "二 次",
      "二 者",
      "于 其",
      "于 发",
      "于 各",
      "于 基",
      "于 来",
      "于 这",
      "于 宇宙",
      "云 君",
      "云 是",
      "五 大",
      "亡 而",
      "产 生",
      "享 给我",
      "亲 缘",
      "人 们",
      "人 员",
      "人 方",
      "人 的",
      "人 科",
      "人 马",
      "人 尚未",
      "人 都会在",
      "人 主动",
      "仅 凭",
      "仆 从",
      "今 未",
      "今 所有",
      "从 其",
      "从 结",
      "从 他们",
      "从 宿主",
      "从 属于",
      "他 了",
      "他 会",
      "他 又",
      "他 那",
      "仗 的",
      "仙 方",
      "令 使",
      "令 其",
      "令 宿主",
      "令 不具",
      "以 拒",
      "以 换",
      "以 推",
      "以 本",
      "以 败",
      "以 无形",
      "以 失去",
      "以 穿透",
      "以 一团",
      "以 下两",
      "仪 器",
      "们 工",
      "仿 生",
      "伏 岁阳",
      "众 多",
      "众 举报",
      "优 势",
      "会 储",
      "会 变",
      "会 和",
      "会 等",
      "会 逐",
      "会 不可",
      "会 生长",
      "会 观测",
      "会 令不具",
      "会 以一团",
      "传 统",
      "伤 残",
      "伤 都会在",
      "伴 生",
      "似 重",
      "但 它",
      "但 总",
      "但 现",
      "但 若",
      "但 它们",
      "但 依然",
      "但 从未",
      "但 巨大的",
      "但 很快",
      "但 星海",
      "位 佚",
      "位 名",
      "位 无",
      "位 置",
      "位 丹鼎",
      "位 英雄",
      "低 的",
      "住 民",
      "体 积",
      "体 重",
      "体 力的",
      "作 为无形目",
      "你 就",
      "你 应",
      "你 摆",
      "你 自",
      "你 一样",
      "你 也许",
      "你 最近",
      "使 用",
      "使 这些全能干细胞",
      "供 给",
      "供 能量",
      "依 次",
      "依 照",
      "依 赖",
      "侦 察",
      "侵 仙舟舰队",
      "便 在",
      "便 是",
      "便 暴",
      "促 使这些全能干细胞",
      "保 持",
      "信 后",
      "信 安",
      "信 接",
      "修 复",
      "修 葺",
      "修 长",
      "俯 冲",
      "倒 退",
      "倒 他了",
      "倚 之成",
      "做 过",
      "做 个市",
      "停 摆",
      "停 之所",
      "像 人类",
      "像 宇宙",
      "充 满",
      "先 我",
      "先 祖",
      "光 学",
      "光 怪",
      "光 的",
      "党 逃",
      "入 侵仙舟舰队",
      "全 数",
      "全 是",
      "全 都",
      "全 无法",
      "公 开",
      "公 里",
      "公 司的",
      "六 千",
      "六 号",
      "六 欲",
      "共 计",
      "共 生物",
      "兴 师",
      "兴 盛",
      "兵 势",
      "其 军",
      "其 列",
      "其 射",
      "其 成",
      "其 最",
      "其 社",
      "其 首",
      "其 飞行",
      "其 生物学",
      "其 组织",
      "其 下的",
      "其 兵势",
      "内 容",
      "内 就",
      "内 死亡",
      "内 的能量",
      "再 有",
      "再 次",
      "再 也未",
      "再 低的",
      "军 与造翼者的",
      "冰 和",
      "准 人类",
      "减 少",
      "几 小",
      "几 斤",
      "几 位丹鼎",
      "出 发",
      "出 新",
      "出 没",
      "出 院",
      "出 他们的",
      "出 种种",
      "出 了我们",
      "击 溃",
      "击 疑",
      "击 性的",
      "分 子",
      "分 支",
      "分 配",
      "分 队",
      "分 享给我",
      "切 断",
      "切 证",
      "则 是",
      "则 自",
      "则 依次",
      "判 令其",
      "别 说",
      "别 岁阳个体",
      "到 治",
      "到 满",
      "到 一些",
      "到 步离人",
      "到 某种",
      "到 不少",
      "到 自己",
      "到 250",
      "到 先祖",
      "制 地",
      "制 度",
      "制 造",
      "制 其飞行",
      "刺 激",
      "前 数",
      "前 略",
      "前 的",
      "剖 学",
      "剽 掠",
      "力 惊",
      "办 成",
      "办 法",
      "功 击溃",
      "动 作",
      "动 性",
      "动 等",
      "动 身",
      "势 必",
      "勤 部",
      "化 中",
      "化 外",
      "化 能量的",
      "匠 以无形",
      "区 别",
      "区 域",
      "医 士",
      "医 案",
      "医 书和",
      "匿 形",
      "十 王",
      "升 格",
      "博 识",
      "占 夺",
      "卫 天",
      "危 险",
      "却 极",
      "却 依然",
      "历 了一",
      "历 5320年前",
      "压 于各",
      "压 制其飞行",
      "原 因",
      "原 始",
      "去 的",
      "去 至",
      "去 之前",
      "及 仙方",
      "及 其军",
      "双 足",
      "反 应",
      "反 物",
      "发 展",
      "发 行",
      "发 觉",
      "发 达",
      "发 力惊",
      "取 它",
      "取 悦",
      "取 爱",
      "取 阅",
      "取 长生",
      "取 任何",
      "取 了他",
      "受 困",
      "受 此",
      "受 重",
      "变 没",
      "变 老",
      "变 为长生种的",
      "变 区域",
      "古 国",
      "另 有",
      "另 一方面",
      "只 是",
      "可 怕",
      "可 支",
      "可 是",
      "可 能",
      "可 见",
      "可 接近",
      "可 上溯至仙舟",
      "可 再低的",
      "史 料",
      "右 自由",
      "司 命",
      "司 还",
      "司 里",
      "司 观测",
      "吃 回",
      "吃 掉",
      "各 种",
      "同 时",
      "名 的",
      "后 事",
      "后 瞧见",
      "后 勤部",
      "向 仙舟",
      "向 克利欧",
      "向 天之外海",
      "吩 咐",
      "含 有",
      "含 着",
      "听 说",
      "呈 现",
      "员 混",
      "周 期",
      "和 损",
      "和 我说",
      "和 所有",
      "和 星际",
      "和 武器",
      "和 肌肉",
      "和 狐人在",
      "和 体力的",
      "和 你一样",
      "和 几位丹鼎",
      "咱 们工",
      "哺 育",
      "唤 它",
      "商 业价值",
      "啼 颂",
      "善 用",
      "喜 好",
      "囚 狱",
      "因 此",
      "因 素",
      "因 为某种",
      "固 定",
      "图 占夺",
      "圣 巢",
      "在 客",
      "在 真",
      "在 转",
      "在 银",
      "在 狐人",
      "在 造翼者的",
      "在 肝脏",
      "在 狐人的",
      "在 大量",
      "在 我得",
      "在 星际",
      "在 某个",
      "在 自己",
      "在 短时间内",
      "在 三次",
      "在 原始",
      "地 方",
      "地 位无",
      "场 调",
      "均 发现",
      "均 被称为",
      "均 从属于",
      "垂 下枝梢",
      "基 于其",
      "增 多",
      "士 索",
      "士 及仙方",
      "声 明",
      "处 即是",
      "备 飞行能力的",
      "备 了步离人",
      "复 出院",
      "多 大",
      "多 寡",
      "多 对",
      "多 变化",
      "多 年前",
      "够 使得",
      "够 危险",
      "大 军",
      "大 小",
      "大 敌",
      "大 概",
      "大 脑",
      "大 能力",
      "大 倒退",
      "天 使",
      "天 外",
      "天 青",
      "太 可怕",
      "失 效",
      "失 灵",
      "失 联",
      "夷 自",
      "夺 舍",
      "奇 怪",
      "奇 的能量",
      "奖 你",
      "奴 役",
      "好 几斤",
      "如 暴",
      "如 今所有",
      "如 其生物学",
      "妖 魔",
      "妙 但巨大的",
      "嬉 戏",
      "孔 雀",
      "存 大量",
      "孤 航",
      "学 技",
      "学 会和",
      "学 士索",
      "孵 育",
      "它 曾",
      "它 能",
      "它 被称为",
      "完 成",
      "完 整",
      "完 全无法",
      "定 属于",
      "家 伙",
      "家 园",
      "宿 敌",
      "密 科技",
      "察 其组织",
      "察 到自己",
      "对 他们",
      "对 宿主",
      "对 你摆",
      "导 穹桑的",
      "寿 终",
      "封 禁",
      "封 信后",
      "射 下光矢",
      "将 报告",
      "尊 兴师",
      "小 队",
      "少 量",
      "少 出现",
      "少 六千",
      "就 死",
      "就 可以",
      "尽 了好",
      "尾 声",
      "局 一样",
      "局 势必",
      "居 停之所",
      "居 其下的",
      "岁 之间",
      "工 人",
      "工 匠以无形",
      "左 右自由",
      "巧 鸟",
      "已 经",
      "已 过",
      "已 全数",
      "帝 王",
      "帝 尊兴师",
      "带 来的",
      "带 一提",
      "帮 我",
      "常 康",
      "平 衡",
      "年 时",
      "年 病",
      "年 轻",
      "年 龄",
      "并 无",
      "并 非",
      "并 可以",
      "并 不能",
      "并 不全能",
      "并 伴生",
      "并 动作",
      "并 哺育",
      "幸 最终",
      "幻 象",
      "幽 囚狱",
      "应 神",
      "底 停摆",
      "庥 隆",
      "度 依赖",
      "开 人类",
      "开 束缚",
      "弃 以本",
      "引 导穹桑的",
      "归 希望",
      "当 然",
      "当 程度的",
      "形 式",
      "形 成",
      "形 时",
      "形 见",
      "影 像",
      "役 之后",
      "彻 底停摆",
      "彼 时",
      "彼 此",
      "往 往",
      "征 呈现",
      "待 更",
      "得 多",
      "得 较",
      "得 很快",
      "得 到治",
      "微 妙但巨大的",
      "心 智",
      "必 打",
      "快 把",
      "快 速",
      "怎 么夸",
      "怕 变老",
      "性 使用",
      "恨 悲",
      "恰 恰",
      "患 最",
      "您 别说",
      "情 感",
      "情 形见",
      "惑 人类",
      "想 法",
      "意 志",
      "意 以下两",
      "意 分享给我",
      "感 到满",
      "感 应神",
      "愿 意分享给我",
      "慢 得多",
      "成 形",
      "成 为佣兵",
      "我 抵",
      "我 明",
      "我 的",
      "我 读",
      "我 认为",
      "我 目前",
      "我 决定",
      "我 总算是",
      "我 不想",
      "我 动身",
      "我 听说",
      "我 将报告",
      "或 她",
      "或 美",
      "或 与其他",
      "或 多对",
      "战 士",
      "战 斗",
      "战 局势必",
      "所 用",
      "所 示",
      "所 行",
      "所 谓",
      "所 掌握",
      "所 以失去",
      "所 带来的",
      "所 幸最终",
      "手 术",
      "手 中搞",
      "打 动",
      "打 仗的",
      "扣 了吧",
      "扼 制地",
      "找 到的",
      "护 的",
      "报 给",
      "抹 去的",
      "拥 有",
      "拥 护的",
      "持 有",
      "振 动等",
      "据 说",
      "掉 脑",
      "探 出的",
      "接 撤",
      "控 血",
      "推 测",
      "推 移",
      "提 供能量",
      "摧 毁",
      "擅 长",
      "擅 于发",
      "操 控血",
      "改 变区域",
      "攻 击性的",
      "放 换气",
      "放 弃以本",
      "故 土",
      "数 是",
      "文 附",
      "文 化中",
      "文 向克利欧",
      "斫 断",
      "断 不可",
      "断 出他们的",
      "无 根",
      "无 论",
      "无 固定",
      "早 有",
      "时 速",
      "时 的容颜",
      "时 内就",
      "时 早有",
      "明 求",
      "明 砍",
      "明 二者",
      "星 历5320年前",
      "是 我",
      "是 正",
      "是 由",
      "是 相",
      "是 什么",
      "是 丹鼎",
      "是 关于",
      "是 卫天",
      "是 天青",
      "是 无固定",
      "显 然",
      "显 示",
      "显 形时",
      "普 通",
      "智 能",
      "暂 的生命",
      "更 大的",
      "曾 发现",
      "最 爱",
      "有 关",
      "有 着",
      "有 确",
      "有 羽",
      "有 过",
      "有 少数",
      "有 飞行能力的",
      "有 一对",
      "有 两种",
      "有 所行",
      "服 宿主",
      "未 必打",
      "本 领",
      "术 难",
      "机 动性",
      "机 巧鸟",
      "杀 剽掠",
      "权 利",
      "权 全是",
      "条 上",
      "来 了",
      "来 自",
      "来 赚",
      "来 到先祖",
      "来 取悦",
      "来 得很快",
      "来 拥有",
      "极 短",
      "枝 的",
      "枝 种",
      "枝 条上",
      "某 位英雄",
      "栖 居于",
      "案 牍",
      "棵 奇怪",
      "楚 是什么",
      "次 大倒退",
      "正 寝",
      "正 常康",
      "此 类",
      "此 说",
      "此 之后",
      "此 处即是",
      "此 役之后",
      "死 灭",
      "死 去之前",
      "殊 的",
      "残 缺",
      "残 党逃",
      "残 杀剽掠",
      "比 起",
      "民 搞不",
      "气 泡",
      "永 葆",
      "永 远",
      "永 世为",
      "求 居停之所",
      "汇 报给",
      "汲 取爱",
      "没 办法",
      "没 多大",
      "没 有确",
      "河 中能",
      "泉 老",
      "波 反应",
      "注 意以下两",
      "活 力",
      "派 出的",
      "派 出了我们",
      "浅 薄",
      "海 盗",
      "消 耗",
      "消 隐",
      "清 查",
      "清 楚是什么",
      "渐 渐",
      "渐 减少",
      "源 与人",
      "源 供给",
      "滞 留",
      "满 了",
      "漂 航",
      "潜 在客",
      "灌 了他们",
      "火 了",
      "灭 其兵势",
      "灵 长",
      "点 突",
      "热 能",
      "然 后瞧见",
      "然 失效",
      "熟 了",
      "燃 烧",
      "燧 皇",
      "爬 起",
      "牢 吗",
      "物 一般",
      "特 征呈现",
      "特 殊的",
      "犯 者",
      "状 仿生",
      "玩 火了",
      "现 的",
      "现 象",
      "理 由",
      "理 大概",
      "甚 至",
      "生 产",
      "生 的诸",
      "用 他们的",
      "由 肝脏",
      "电 磁",
      "留 着",
      "痕 迹",
      "痴 迷",
      "的 祖",
      "的 神",
      "的 科",
      "的 背",
      "的 腰",
      "的 覆",
      "的 试",
      "的 话",
      "的 资",
      "的 迷",
      "的 阵",
      "的 岁阳",
      "的 记录",
      "的 宿主",
      "的 功能",
      "的 生理",
      "的 结构",
      "的 无形目",
      "的 关系",
      "的 整个肝脏",
      "的 族类",
      "的 正是",
      "的 武器",
      "的 羽民",
      "的 能力",
      "的 行为",
      "的 记载",
      "的 身躯",
      "的 令使",
      "的 体积",
      "的 内容",
      "的 区别",
      "的 医书和",
      "的 双足",
      "的 地方",
      "的 家伙",
      "的 幽囚狱",
      "的 想法",
      "的 权利",
      "的 枝条上",
      "的 残缺",
      "的 理由",
      "的 痕迹",
      "目 击疑",
      "相 反",
      "相 斥",
      "相 较",
      "相 当程度的",
      "看 看",
      "看 来拥有",
      "真 够危险",
      "眼 间",
      "着 能",
      "着 这",
      "着 一层",
      "着 年轻",
      "矣 维持",
      "短 暂的生命",
      "石 圣巢",
      "研 吧",
      "破 坏",
      "确 的",
      "碧 色",
      "祈 求居停之所",
      "神 策",
      "神 话",
      "神 之兆",
      "神 的能力",
      "离 群",
      "离 的生命",
      "稿 酬",
      "穹 顶",
      "空 腔",
      "空 中飞行",
      "突 击",
      "竭 所带来的",
      "端 高",
      "第 二次",
      "笼 罩",
      "笼 束缚",
      "算 活得",
      "类 型",
      "类 的生理",
      "精 科",
      "系 统",
      "级 之下",
      "级 分配",
      "纯 能量",
      "纵 欲",
      "细 政治",
      "经 费",
      "经 历了一",
      "经 系统",
      "结 冰和",
      "结 局一样",
      "络 中断",
      "绝 大多数",
      "绝 少出现",
      "罗 浮",
      "羽 皇",
      "羽 翼",
      "羽 人方",
      "羽 夷自",
      "老 年病",
      "考 虑",
      "考 察其组织",
      "而 成",
      "而 言",
      "而 他们",
      "而 这种",
      "而 从其",
      "而 只是",
      "而 帝尊兴师",
      "而 生的诸",
      "职 员混",
      "联 络中断",
      "聚 集",
      "肉 身躯",
      "胜 纪",
      "能 让",
      "能 进",
      "能 造",
      "能 通过",
      "能 从他们",
      "能 像人类",
      "能 在真",
      "能 够使得",
      "能 源供给",
      "能 电磁",
      "脑 再度",
      "腾 骁",
      "自 身",
      "自 云是",
      "自 此之后",
      "至 其他世界",
      "至 今未",
      "花 费",
      "若 干",
      "若 不是",
      "范 其射",
      "药 典",
      "营 中",
      "蕴 含着",
      "虽 不排",
      "融 合",
      "行 高",
      "行 智慧",
      "行 取阅",
      "衔 枝种",
      "表 现的",
      "衰 竭所带来的",
      "袋 的事",
      "被 认",
      "被 钉",
      "被 认为",
      "被 寄生",
      "被 封禁",
      "被 我的",
      "被 抹去的",
      "装 备了步离人",
      "要 令宿主",
      "要 分支",
      "要 慢得多",
      "见 信安",
      "见 的无形目",
      "觉 察到自己",
      "解 释",
      "解 之处",
      "解 剖学",
      "解 开束缚",
      "让 他们",
      "记 述",
      "记 不记得",
      "讳 被抹去的",
      "论 上来",
      "证 明",
      "词 条",
      "试 图占夺",
      "诚 意",
      "话 说",
      "该 不记得",
      "详 细政治",
      "诱 惑人类",
      "请 你自",
      "负 责",
      "质 军团",
      "贸 易",
      "资 源与人",
      "赶 快把",
      "足 趾",
      "足 以推",
      "足 可上溯至仙舟",
      "足 矣维持",
      "转 化能量的",
      "转 变为长生种的",
      "辨 别岁阳个体",
      "达 了阿毅他们",
      "达 到250",
      "过 任何",
      "近 距离时",
      "近 乎鬼",
      "还 不止",
      "还 对你摆",
      "这 个",
      "这 使得",
      "这 也是",
      "这 位佚",
      "这 便是",
      "这 可是",
      "这 封信后",
      "这 花费",
      "远 距离时",
      "通 的",
      "通 信接",
      "速 俯冲",
      "造 司里",
      "道 你还",
      "避 开人类",
      "那 样",
      "那 时候",
      "那 个身",
      "那 位名",
      "部 肌肉",
      "都 搞不",
      "都 维持",
      "都 变没",
      "都 持有",
      "都 能像人类",
      "鄙 人主动",
      "配 能量的",
      "释 放换气",
      "重 物一般",
      "镇 伏岁阳",
      "镇 压于各",
      "间 再也未",
      "队 跃迁",
      "队 中三人",
      "防 范其射",
      "阶 段",
      "阶 级之下",
      "陆 离的生命",
      "陆 行智慧",
      "降 临",
      "除 有少数",
      "陶 德",
      "随 之而",
      "随 情感",
      "集 的残缺",
      "雇 佣兵",
      "露 了本",
      "青 春",
      "青 碧色",
      "面 前",
      "顶 端高",
      "顺 带一提",
      "频 段",
      "首 先我",
      "驯 服宿主",
      "骨 骼",
      "高 飞行",
      "高 能电磁",
      "魂 精科",
      "鸟 类的生理",
      "龙 泉老",
      "岁阳 亚种",
      "岁阳 从未",
      "岁阳 现身",
      "岁阳 便在",
      "岁阳 喜好",
      "岁阳 感到满",
      "岁阳 是无固定",
      "岁阳 被认",
      "岁阳 试图占夺",
      "岁阳 驯服宿主",
      "他们 体内",
      "他们 掌握",
      "他们 总算是",
      "他们 不老",
      "他们 未必打",
      "他们 能在真",
      "他们 装备了步离人",
      "造翼者 流离",
      "造翼者 是联盟历史悠久的",
      "造翼者 严格",
      "造翼者 及其军",
      "造翼者 在星际",
      "造翼者 擅长",
      "造翼者 第二次",
      "仙舟 英雄",
      "仙舟 住民",
      "仙舟 工匠以无形",
      "仙舟 提供能量",
      "狐人 这种",
      "狐人 患者",
      "狐人 直到",
      "狐人 与步离人",
      "狐人 因此",
      "... )",
      "... 」",
      "记录 中断",
      "记录 中称",
      "记录 前略",
      "记录 显示",
      "记录 证明",
      "穹桑 毁灭",
      "穹桑 与建木",
      "它们 通过",
      "它们 穿透",
      "它们 通常",
      "它们 与精",
      "它们 便暴",
      "它们 的痕迹",
      "它们 能通过",
      "造翼者的 羽皇",
      "造翼者的 解剖学",
      "造翼者的 详细政治",
      "造翼者的 雇佣兵",
      "全能干细胞 失去",
      "生物 均被称为",
      "能量 生成",
      "我们 靠",
      "我们 切除了",
      "我们 做过",
      "我们 在银",
      "我们 完全无法",
      "肝脏 比起",
      "」。 「",
      "人类 智慧种族",
      "人类 的身躯",
      "宿主 的数量",
      "无形 者",
      "无形 无根",
      "码头 出没",
      "这些 医学报告",
      "这些 汇报给",
      "狐人的 自然死亡",
      "狐人的 肉体",
      "一些 不可",
      "一些 步离人",
      "一些 相关",
      "一些 对他们",
      "不可 考",
      "不可 胜纪",
      "其他 器官",
      "其他 智慧种族",
      "失去 自由",
      "失去 肝脏比起",
      "失去 其他器官",
      "按照 目前",
      "按照 玉阙太卜",
      "按照 传统",
      "按照 公司的",
      "认为 帝弓",
      "认为 这件事",
      "长生 不死",
      "步离人 打仗的",
      "不具 备飞行能力的",
      "不具 有飞行能力的",
      "不具 热能",
      "世界 中",
      "世界 也许",
      "任何 岁阳个体",
      "任何 不具备飞行能力的",
      "使得 衰老",
      "力的 足趾",
      "司的 记载",
      "司的 推测",
      "司的 职员混",
      "器官 开始",
      "寄生 从宿主",
      "寄生 宿主的数量",
      "时间 极短",
      "时间 点突",
      "通过 快速",
      "岁阳一族 变化",
      "岁阳一族 是联盟历史悠久的",
      "岁阳一族 也遭",
      "岁阳一族 在原始",
      "他们的 能源供给",
      "他们的 骨骼",
      "穹桑的 五大",
      "穹桑的 世界也许",
      "这些全能干细胞 的数量",
      "一样 长",
      "上的 位置",
      "为什么 他会",
      "为什么 通信接",
      "也许 狐人的全能干细胞",
      "会在 全能干细胞失去",
      "体内 的岁阳",
      "体内 器官开始",
      "依然 能够使得",
      "军团 再度",
      "分类 所示",
      "功能 后的",
      "功能 衰竭所带来的",
      "发现 他们在",
      "变成 了一",
      "变成 那样",
      "可以 彼此",
      "帝弓 光矢",
      "帝弓 神话",
      "戊时 正",
      "戊时 二刻",
      "戊时 三刻",
      "接触 到了",
      "接触 上溯至仙舟",
      "接触 足可上溯至仙舟",
      "文明 看来拥有",
      "文明 经历了一",
      "文明 记录中称",
      "某种 生物学上的",
      "沉墟庚 字三号",
      "的原 因",
      "的原 文附",
      "的原 理大概",
      "类似 的囚",
      "类似 的结构",
      "类似 穹桑的世界也许",
      "自由 转化能量的",
      "虽然 那些",
      "虽然 岁阳被认",
      "虽然 记录显示",
      "距离 镇伏岁阳",
      "岁阳的 封印",
      "岁阳的 个性",
      "岁阳个体 之间",
      "丰饶民 战争中",
      "丰饶孽物 中罕",
      "能量的 本领",
      "一切 羽民",
      "一切 来自",
      "三人 联络中断",
      "不能 公开",
      "与造翼者的 接触足可上溯至仙舟",
      "中能 永远",
      "云骑 巡防",
      "云骑 军与造翼者的",
      "价值 不大的",
      "但我 发觉",
      "但我 怕变老",
      "你的 了",
      "你的 老师",
      "你还 没多大",
      "依旧 需要",
      "依旧 蕴含着",
      "关于 它们的痕迹",
      "其中 的原理大概",
      "其中 依旧蕴含着",
      "具有 一定",
      "具有 刺激",
      "决定 了两者",
      "准备 后事",
      "几乎 毁灭",
      "几乎 在转",
      "出现 各种",
      "分化 的功能",
      "分化 功能后的",
      "到的 知识",
      "前往 侦察",
      "即是 射下光矢",
      "及至 与丰饶民的",
      "后的 复生速度",
      "启航 前的",
      "启航 的理由",
      "在了 那东西",
      "在了 这封信后",
      "多器官 中都",
      "多器官 功能衰竭所带来的",
      "大仙舟 的幽囚狱",
      "大多数 潜在客",
      "如果 我没",
      "如果 你最近",
      "学者 与书",
      "学者 拥护的",
      "封印 着这",
      "少数 学者拥护的",
      "就是 对宿主",
      "就是 多器官功能衰竭所带来的",
      "居于 顶端高",
      "巡防 记录",
      "希望 能从他们",
      "开始 痴迷",
      "当时 我没",
      "当时 我们切除了",
      "形体的 纯能量",
      "形体的 岁阳感到满",
      "性的 行为",
      "患者 往往",
      "情报 提及",
      "情报 待更",
      "意思 了",
      "意思 的事",
      "我得 赶快把",
      "我说 尽了好",
      "战争中 表现的",
      "掠夺 资源与人",
      "接近 鸟类的生理",
      "操纵 能量生成",
      "操纵 能量的本领",
      "整个肝脏 后的复生速度",
      "星海 的羽民",
      "最终 结局一样",
      "最近 我总算是",
      "某个 造翼者的雇佣兵",
      "活得 那么",
      "流离 星海的羽民",
      "的主 人",
      "的主 要分支",
      "的囚 笼束缚",
      "的强 弱",
      "的强 大能力",
      "的树 状仿生",
      "的诸 多器官中都",
      "直到 他们",
      "相关 记述",
      "瞧见 他那",
      "程度的 相斥",
      "组织 人马",
      "给我 看看",
      "肉体 消耗",
      "衰老 太可怕",
      "许多 造翼者流离",
      "许多 文明记录中称",
      "跃迁 的",
      "这件事 就死",
      "通常 为泛",
      "那么 专利",
      "那些 不能公开",
      "酉时 正",
      "酉时 二刻",
      "阿毅他们 全都",
      "随着 穹桑毁灭",
      "随着 寄生宿主的数量",
      "雷奥登 老师",
      "需要 注意以下两",
      "造翼者们 栖居于",
      "造翼者们 能进",
      "仙舟舰队 启航的理由",
      "狐人在 此类",
      "狐人的全能干细胞 并非",
      "长生种的 最终结局一样",
      "朱明仙舟 受此",
      "朱明仙舟 封印着这",
      "朱明的人 唤它",
      "朱明的人 最爱",
      "...... 」",
      "...... ?」",
      "这些全能干细胞会 不断",
      "这些全能干细胞会 彻底停摆",
      "沉墟庚字 二号",
      "沉墟庚字 六号",
      "丰饶民的 贸易",
      "生物学上的 亲缘",
      "一方面 他们掌握",
      "切除了 狐人患者",
      "复生速度 要慢得多",
      "大部分 人都会在",
      "大部分 狐人在此类",
      "天之外海 来",
      "玉阙太卜 司观测",
      "短时间内 得到治",
      "307 岁",
      "4天 内死亡",
      "450 岁之间",
      "400 公里",
      "一度 与仙舟",
      "一生 中的",
      "一神 奇的能量",
      "七情 六欲",
      "三十 二",
      "上长 满了",
      "不也 留着",
      "不及 准备后事",
      "不完 全的",
      "不忙 的话",
      "不知 道你还",
      "不至 于来",
      "不全的 史料",
      "与之 嬉戏",
      "与其 结盟",
      "与爆 发力惊",
      "与盔 甲",
      "与岁阳的 接触上溯至仙舟",
      "世外 妖魔",
      "中位 数是",
      "中学 习知识",
      "中搜 集的残缺",
      "中提及 的正是",
      "为了 向天之外海",
      "为其 生产",
      "为缓 慢",
      "为我们 所用",
      "乃得 羽人方",
      "么个妖 怪",
      "九大仙舟 漂航",
      "也会 渐渐",
      "也使得 他们能在真",
      "了冷 脸",
      "了造翼者的 故土",
      "了穹桑的 大军",
      "了不少 经费",
      "事实 上",
      "事故 案牍",
      "二十 多年前",
      "于基 准人类",
      "于这 一神奇的能量",
      "于宇宙 中",
      "亡而 终",
      "产生 差异",
      "人们 开始痴迷",
      "人员 滞留",
      "人的 突击",
      "人尚未 转变为长生种的",
      "仅凭 浅薄",
      "从结 论上来",
      "他又 爬起",
      "以换 取它",
      "以败 亡而终",
      "以穿透 的迷",
      "仪器 会观测",
      "众多 光怪",
      "会储 存大量",
      "会变 得较",
      "会等 级分配",
      "会逐 渐减少",
      "会不可 扼制地",
      "会生长 出新",
      "会令不具 形体的岁阳感到满",
      "会以一团 青碧色",
      "伤都会在 短时间内得到治",
      "似重 犯者",
      "但它 绝少出现",
      "但总 归希望",
      "但现 在我得",
      "但若 要令宿主",
      "但它们 依然能够使得",
      "但依然 足矣维持",
      "但从未 有过",
      "但很快 它们便暴",
      "但星海 间再也未",
      "体重 和体力的",
      "作为无形目 生物",
      "你就 和我说",
      "你应 该不记得",
      "你也许 是正",
      "依照 其社",
      "促使这些全能干细胞 在某个",
      "保持 活力",
      "修复 狐人的肉体",
      "修葺 家园",
      "修长 的双足",
      "倚之成 功击溃",
      "做个市 场调",
      "像宇宙 一样长",
      "充满 攻击性的",
      "光学 影像",
      "光的 频段",
      "共计 三十二",
      "兴盛 生长",
      "其成 神之兆",
      "其最 高飞行",
      "其首 脑再度",
      "内的能量 平衡",
      "再有 意思的事",
      "再次 前往",
      "几小 时内就",
      "出发 之前",
      "出种种 幻象",
      "分子 生物学上的亲缘",
      "切断 了建木",
      "切证 据说",
      "则是 地位无",
      "则自 诩",
      "则依次 是卫天",
      "判令其 永世为",
      "到一些 普通",
      "到步离人 和狐人在",
      "到某种 高能电磁",
      "到不少 钱",
      "制度 已经",
      "制造 却极",
      "前数 年",
      "办成 这件事就死",
      "化外 民搞不",
      "医士 完整",
      "医案 中",
      "十王 司的记载",
      "升格 而成",
      "博识 学会和",
      "却依然 没办法",
      "压制其飞行 机动性",
      "原因 聚集",
      "去至 少六千",
      "反物 质军团",
      "发展 过任何",
      "发行 的医书和",
      "发达 的背",
      "取任何 稿酬",
      "取了他 的腰",
      "受重 创",
      "古国 时代",
      "另有 一些不可",
      "另一方面 他们的能源供给",
      "可支 配能量的",
      "可能 都持有",
      "可见 光的频段",
      "可接近 400公里",
      "可再低的 种种",
      "司命 是由",
      "司还 是我",
      "吃回 扣了吧",
      "吃掉 七情六欲",
      "名的 仙舟英雄",
      "后勤部 的",
      "向仙舟 祈求居停之所",
      "吩咐 队中三人",
      "含有 特殊的",
      "周期 中能永远",
      "和损 伤都会在短时间内得到治",
      "和所有 长生种的最终结局一样",
      "和星际 海盗",
      "和武器 制造却极",
      "和肌肉 含有特殊的",
      "和你一样 的想法",
      "和几位丹鼎 司的职员混",
      "咱们工 造司里",
      "啼颂 种",
      "善用 自身",
      "因素 促使这些全能干细胞在某个",
      "因为某种 原因聚集",
      "在狐人 一生中的",
      "在造翼者的 文化中",
      "在肝脏 处",
      "在狐人的 年龄",
      "在大量 医案中",
      "在自己 短暂的生命",
      "在短时间内 换气",
      "在三次 丰饶民战争中",
      "均发现 他们装备了步离人",
      "均从属于 某个造翼者的雇佣兵",
      "基于其 操纵能量的本领",
      "士及仙方 若干",
      "大脑 中学习知识",
      "失灵 机巧鸟",
      "失联 的地方",
      "夺舍 之祸",
      "奴役 其他智慧种族",
      "好几斤 龙泉老",
      "如暴 食",
      "如今所有 流离星海的羽民",
      "如其生物学 分类所示",
      "孔雀 天使",
      "孤航 时代",
      "学技 术难",
      "学士索 取任何稿酬",
      "孵育 种",
      "它曾 一度与仙舟",
      "它能 避开人类",
      "完成 具有刺激",
      "定属于 丰饶孽物",
      "密科技 具有一定",
      "寿终 正寝",
      "小队 的人",
      "少量 记录证明",
      "就可以 辨别岁阳个体",
      "居其下的 则依次是卫天",
      "左右自由 意志",
      "已过 去至少六千",
      "已全数 清查",
      "帝王 派出了我们",
      "帮我 做个市场调",
      "年时 光",
      "并无 人员滞留",
      "并可以 正常康",
      "并不能 为我们所用",
      "并伴生 有一对",
      "并哺育 一切羽民",
      "度依赖 掠夺",
      "引导穹桑的 兴盛生长",
      "形成 更大的",
      "彼时 九大仙舟漂航",
      "微妙但巨大的 差异",
      "心智 的过程",
      "怎么夸 奖你",
      "性使用 的过程",
      "恨悲 喜",
      "恰恰 相反",
      "患最 深",
      "您别说 这个",
      "情形见 上",
      "感应神 经系统",
      "愿意分享给我 一些对他们",
      "成为佣兵 和星际海盗",
      "我抵 达了阿毅他们",
      "我明 明砍",
      "我读 取了他的腰",
      "我认为 其中的原理大概",
      "我目前 认为这件事",
      "我决定 组织人马",
      "我不想 长生不死",
      "我动身 出发之前",
      "我听说 朱明仙舟封印着这",
      "我将报告 的原文附",
      "或美 貌",
      "或与其他 丰饶民的贸易",
      "战斗 需要注意以下两",
      "战局势必 以败亡而终",
      "所掌握 的资",
      "所以失去 整个肝脏后的复生速度",
      "所幸最终 仙舟工匠以无形",
      "手术 后",
      "手中搞 到一些普通",
      "找到的 大多数潜在客",
      "振动等 现象",
      "掉脑 袋的事",
      "接撤 离群",
      "推移 重物一般",
      "摧毁 了造翼者的故土",
      "擅于发 力的足趾",
      "操控血 肉身躯",
      "改变区域 内的能量平衡",
      "放弃以本 文向克利欧",
      "斫断 建木",
      "断不可 信",
      "断出他们的 文明经历了一",
      "无论 是丹鼎",
      "时速 可接近400公里",
      "时早有 准备",
      "明求 取长生",
      "明二者 有关",
      "星历5320年前 后",
      "是相 通的",
      "是关于 狐人的",
      "是天青 石圣巢",
      "智能 生物",
      "曾发现 关于它们的痕迹",
      "有着 某种生物学上的",
      "有羽 亚种",
      "有两种 解释",
      "有所行 动",
      "权全是 你的了",
      "来赚 到不少钱",
      "来到先祖 面前",
      "来取悦 体内的岁阳",
      "枝的 是天青石圣巢",
      "某位英雄 解开束缚",
      "棵奇怪 的树",
      "此说 断不可信",
      "此处即是 少数学者拥护的",
      "死去之前 都维持",
      "残党逃 脱",
      "气泡 空腔",
      "永葆 青春",
      "汲取爱 恨悲喜",
      "没有确 切证据说",
      "河中能 找到的大多数潜在客",
      "派出的 三人联络中断",
      "消隐 匿形",
      "清楚是什么 因素促使这些全能干细胞在某个",
      "灌了他们 好几斤龙泉老",
      "灵长 目",
      "然后瞧见 了",
      "然失效 的",
      "特征呈现 接近鸟类的生理",
      "甚至 还对你摆",
      "用他们的 话说",
      "由肝脏 生成",
      "的祖 先",
      "的神 明求取长生",
      "的科 学技术难",
      "的覆 灭",
      "的试 验",
      "的阵 营中",
      "的宿主 会不可扼制地",
      "的关系 是",
      "的武器 与盔甲",
      "的体积 大小",
      "目击疑 似重犯者",
      "相较 于基准人类",
      "相当程度的 商业价值",
      "真够危险 的",
      "眼间 摧毁了造翼者的故土",
      "着能 跃迁的",
      "着一层 仅凭浅薄",
      "着年轻 时的容颜",
      "神策 府",
      "空中飞行 并动作",
      "笼罩 着一层仅凭浅薄",
      "算活得 像宇宙一样长",
      "结冰和 振动等现象",
      "绝大多数 阶段",
      "羽夷自 天之外海来",
      "考虑 到步离人和狐人在",
      "考察其组织 形式",
      "而言 价值不大的",
      "而他们 则自诩",
      "而这种 微妙但巨大的差异",
      "而从其 显形时",
      "而只是 因为某种原因聚集",
      "而帝尊兴师 以拒",
      "而生的诸 多变化",
      "能让 我们靠",
      "能造 出种种幻象",
      "自云是 无形无根",
      "至今未 归",
      "若不是 帝弓光矢",
      "虽不排 除有少数",
      "行高 速俯冲",
      "被钉 在了那东西",
      "被认为 是",
      "被寄生 的宿主会不可扼制地",
      "见信安 好",
      "见的无形目 生命",
      "让他们 给我看看",
      "讳被抹去的 帝王派出了我们",
      "请你自 行取阅",
      "负责 引导穹桑的兴盛生长",
      "足以推 断出他们的文明经历了一",
      "近距离时 压制其飞行机动性",
      "近乎鬼 神的能力",
      "还不止 一棵",
      "这使得 岁阳一族在原始",
      "这也是 它被称为",
      "这位佚 名的仙舟英雄",
      "这可是 掉脑袋的事",
      "这花费 了不少经费",
      "远距离时 防范其射",
      "那时候 你还没多大",
      "那个身 上长满了",
      "那位名 讳被抹去的帝王派出了我们",
      "部肌肉 群",
      "都搞不 清楚是什么因素促使这些全能干细胞在某个",
      "都变没 意思了",
      "都能像人类 推移重物一般",
      "鄙人主动 放弃以本文向克利欧",
      "镇压于各 大仙舟的幽囚狱",
      "队跃迁 至其他世界",
      "陆行智慧 生物均被称为",
      "随之而 来的",
      "随情感 而生的诸多变化",
      "露了本 性",
      "首先我 声明",
      "岁阳从未 发展过任何",
      "岁阳现身 时",
      "岁阳便在 其列",
      "岁阳喜好 寄生",
      "岁阳是无固定 形体的纯能量",
      "岁阳试图占夺 人类的身躯",
      "岁阳驯服宿主 心智的过程",
      "他们体内 的诸多器官中都",
      "他们总算是 被我的",
      "他们不老 的容颜",
      "他们未必打 算活得像宇宙一样长",
      "造翼者是联盟历史悠久的 大敌",
      "造翼者严格 依照其社",
      "造翼者及其军 队跃迁至其他世界",
      "造翼者在星际 战争中表现的",
      "造翼者擅长 飞行",
      "造翼者第二次 入侵仙舟舰队",
      "狐人这种 不完全的",
      "狐人直到 死去之前都维持",
      "狐人与步离人 有着某种生物学上的",
      "狐人因此 变成",
      "穹桑与建木 的关系是",
      "它们通过 寄生从宿主",
      "它们穿透 穹顶",
      "它们通常 会以一团青碧色",
      "它们与精 密科技具有一定",
      "它们能通过 操纵能量生成",
      "造翼者的解剖学 特征呈现接近鸟类的生理",
      "造翼者的详细政治 制度已经",
      "我们做过 一些相关",
      "我们在银 河中能找到的大多数潜在客",
      "我们完全无法 考察其组织形式",
      "这些医学报告 的内容",
      "这些汇报给 神策府",
      "狐人的自然死亡 和所有长生种的最终结局一样",
      "一些步离人 的肝脏",
      "失去自由 分化的功能",
      "失去肝脏比起 失去其他器官",
      "按照目前 所掌握的资",
      "按照玉阙太卜 司的推测",
      "按照公司的 情报提及",
      "认为帝弓 司命是由",
      "步离人打仗的 时候",
      "不具有飞行能力的 智能生物",
      "任何岁阳个体 都能像人类推移重物一般",
      "任何不具备飞行能力的 陆行智慧生物均被称为",
      "使得衰老 和损伤都会在短时间内得到治",
      "时间点突 然失效的",
      "通过快速 释放换气",
      "岁阳一族变化 万端",
      "岁阳一族是联盟历史悠久的 宿敌",
      "岁阳一族也遭 受重创",
      "他们的骨骼 和肌肉含有特殊的",
      "穹桑的五大 阶级之下",
      "这些全能干细胞的数量 会逐渐减少",
      "为什么他会 变成那样",
      "为什么通信接 不上",
      "会在全能干细胞失去 分化功能后的",
      "体内器官开始 出现各种",
      "军团再度 有所行动",
      "发现他们在 几小时内就",
      "变成了一 个巨大的",
      "接触到了 众多光怪",
      "文明看来拥有 近乎鬼神的能力",
      "类似的囚 牢吗",
      "类似的结构 也使得他们能在真",
      "类似穹桑的世界也许 还不止一棵",
      "自由转化能量的 类型",
      "虽然岁阳被认 定属于丰饶孽物",
      "距离镇伏岁阳 已过去至少六千",
      "岁阳的个性 也会渐渐",
      "岁阳个体之间 可以彼此",
      "丰饶孽物中罕 见的无形目生命",
      "一切来自 其他世界",
      "与造翼者的接触足可上溯至仙舟 启航前的",
      "云骑巡防 分队",
      "云骑军与造翼者的 战斗需要注意以下两",
      "但我发觉 其中依旧蕴含着",
      "依旧需要 在短时间内换气",
      "几乎毁灭 罗浮",
      "几乎在转 眼间摧毁了造翼者的故土",
      "即是射下光矢 斫断建木",
      "如果我没 办成这件事就死",
      "如果你最近 不忙的话",
      "学者与书 记",
      "就是对宿主 肉体消耗",
      "就是多器官功能衰竭所带来的 死灭",
      "居于顶端高 枝的是天青石圣巢",
      "希望能从他们 手中搞到一些普通",
      "当时我没 怎么夸奖你",
      "当时我们切除了 一些步离人的肝脏",
      "患者往往 会在全能干细胞失去分化功能后的",
      "情报待更 新",
      "我得赶快把 这些汇报给神策府",
      "我说尽了好 话",
      "掠夺资源与人 口",
      "最近我总算是 和几位丹鼎司的职员混",
      "活得那么 长",
      "的囚笼束缚 了它们",
      "的树状仿生 世界中",
      "相关记述 中提及的正是",
      "瞧见他那 棵奇怪的树",
      "衰老太可怕 了",
      "许多造翼者流离 于宇宙中",
      "许多文明记录中称 之为",
      "通常为泛 人类智慧种族",
      "那么专利 权全是你的了",
      "那些不能公开 发行的医书和",
      "阿毅他们全都 被钉在了那东西",
      "随着寄生宿主的数量 增多",
      "造翼者们栖居于 被称为",
      "造翼者们能进 行高速俯冲",
      "狐人的全能干细胞并非 由肝脏生成",
      "朱明仙舟受此 患最深",
      "朱明的人最爱 玩火了",
      "这些全能干细胞会不断 修复狐人的肉体",
      "一方面他们掌握 着能跃迁的",
      "切除了狐人患者 的整个肝脏",
      "大部分人都会在 体内器官开始出现各种",
      "大部分狐人在此类 手术后",
      "玉阙太卜司观测 到了",
      "450岁之间 时",
      "不也留着 类似的囚牢吗",
      "不知道你还 记不记得",
      "不至于来 不及准备后事",
      "与爆发力惊 人的突击",
      "与岁阳的接触上溯至仙舟 人尚未转变为长生种的",
      "世外妖魔 族类",
      "中位数是 307岁",
      "中搜集的残缺 不全的史料",
      "为了向天之外海 的神明求取长生",
      "乃得羽人方 士及仙方若干",
      "事故案牍 已全数清查",
      "于这一神奇的能量 共生物",
      "人们开始痴迷 于这一神奇的能量共生物",
      "从结论上来 讲",
      "他又爬起 来了",
      "以换取它 的强大能力",
      "以穿透的迷 雾",
      "仪器会观测 到某种高能电磁",
      "会储存大量 全能干细胞",
      "会变得较 为缓慢",
      "会等级分配 他们在",
      "会生长出新 的肝脏",
      "会令不具形体的岁阳感到满 足",
      "但它绝少出现 在",
      "但总归希望 在自己短暂的生命",
      "但现在我得 说",
      "但若要令宿主 觉察到自己",
      "但它们依然能够使得 狐人直到死去之前都维持",
      "但依然足矣维持 他们不老的容颜",
      "但从未有过 狐人因此变成",
      "但很快它们便暴 露了本性",
      "但星海间再也未 曾发现关于它们的痕迹",
      "体重和体力的 优势",
      "你就和我说 过",
      "你也许是正 确的",
      "倚之成功击溃 了穹桑的大军",
      "其成神之兆 即是射下光矢斫断建木",
      "其最高飞行 时速可接近400公里",
      "其首脑再度 被封禁",
      "再有意思的事 都变没意思了",
      "分子生物学上的亲缘 关系",
      "则是地位无 可再低的种种",
      "判令其永世为 仙舟提供能量",
      "化外民搞不 到的知识",
      "医士完整 切除了狐人患者的整个肝脏",
      "十王司的记载 认为",
      "博识学会和 步离人打仗的时候",
      "却依然没办法 让他们给我看看",
      "反物质军团 几乎在转眼间摧毁了造翼者的故土",
      "发达的背 部肌肉群",
      "另有一些不可 解之处",
      "另一方面他们的能源供给 和武器制造却极",
      "可支配能量的 多寡",
      "可能都持有 和你一样的想法",
      "吩咐队中三人 前往侦察",
      "周期中能永远 保持活力",
      "咱们工造司里 不也留着类似的囚牢吗",
      "善用自身 体重和体力的优势",
      "在狐人一生中的 绝大多数阶段",
      "在狐人的年龄 达到250",
      "均发现他们装备了步离人 的武器与盔甲",
      "均从属于某个造翼者的雇佣兵 军团",
      "失灵机巧鸟 共计三十二",
      "奴役其他智慧种族 为其生产",
      "如今所有流离星海的羽民 均从属于某个造翼者的雇佣兵军团",
      "学士索取任何稿酬 的权利",
      "它曾一度与仙舟 结盟",
      "它能避开人类 可见光的频段",
      "完成具有刺激 性的行为",
      "就可以辨别岁阳个体 的强弱",
      "居其下的则依次是卫天 种",
      "帮我做个市场调 研吧",
      "并无人员滞留 受困",
      "并可以正常康 复出院",
      "彼时九大仙舟漂航 天外",
      "感应神经系统 随情感而生的诸多变化",
      "愿意分享给我一些对他们 而言价值不大的",
      "我抵达了阿毅他们 失联的地方",
      "我明明砍 倒他了",
      "我读取了他的腰 牌",
      "我认为其中的原理大概 是相通的",
      "我目前认为这件事 有两种解释",
      "我决定组织人马 再次前往",
      "我听说朱明仙舟封印着这 么个妖怪",
      "我将报告的原文附 在了这封信后",
      "所以失去整个肝脏后的复生速度 会变得较为缓慢",
      "所幸最终仙舟工匠以无形 的囚笼束缚了它们",
      "接撤离群 众举报",
      "擅于发力的足趾 结构",
      "无论是丹鼎 司还是我",
      "某位英雄解开束缚 岁阳的封印",
      "此处即是少数学者拥护的 所谓",
      "气泡空腔 结构",
      "没有确切证据说 明二者有关",
      "灌了他们好几斤龙泉老 窖",
      "甚至还对你摆 了冷脸",
      "的科学技术难 以穿透的迷雾",
      "目击疑似重犯者 在",
      "笼罩着一层仅凭浅薄 的科学技术难以穿透的迷雾",
      "考虑到步离人和狐人在 分子生物学上的亲缘关系",
      "而只是因为某种原因聚集 在肝脏处",
      "能造出种种幻象 诱惑人类",
      "自云是无形无根 的族类",
      "若不是帝弓光矢 降临",
      "虽不排除有少数 残党逃脱",
      "被寄生的宿主会不可扼制地 完成具有刺激性的行为",
      "足以推断出他们的文明经历了一 次大倒退",
      "这使得岁阳一族在原始 文明看来拥有近乎鬼神的能力",
      "这位佚名的仙舟英雄 升格而成",
      "远距离时防范其射 击",
      "那位名讳被抹去的帝王派出了我们 的祖先",
      "都搞不清楚是什么因素促使这些全能干细胞在某个 时间点突然失效的",
      "鄙人主动放弃以本文向克利欧 学士索取任何稿酬的权利",
      "镇压于各大仙舟的幽囚狱 中",
      "岁阳从未发展过任何 科技",
      "岁阳是无固定形体的纯能量 生物",
      "他们体内的诸多器官中都 会储存大量全能干细胞",
      "造翼者严格依照其社 会等级分配他们在",
      "造翼者在星际战争中表现的 科技",
      "狐人与步离人有着某种生物学上的 差异",
      "它们通过寄生从宿主 大脑中学习知识",
      "它们通常会以一团青碧色 的",
      "它们与精密科技具有一定 程度的相斥",
      "它们能通过操纵能量生成 光学影像",
      "造翼者的详细政治制度已经 不可考",
      "我们做过一些相关 的试验",
      "我们在银河中能找到的大多数潜在客 户",
      "按照目前所掌握的资 料",
      "认为帝弓司命是由 这位佚名的仙舟英雄升格而成",
      "使得衰老和损伤都会在短时间内得到治 愈",
      "他们的骨骼和肌肉含有特殊的 气泡空腔结构",
      "发现他们在几小时内就 变成了一个巨大的",
      "接触到了众多光怪 陆离的生命",
      "类似的结构也使得他们能在真 空中飞行并动作",
      "距离镇伏岁阳已过去至少六千 年时光",
      "岁阳的个性也会渐渐 成形",
      "云骑军与造翼者的战斗需要注意以下两 点",
      "但我发觉其中依旧蕴含着 相当程度的商业价值",
      "如果我没办成这件事就死 了",
      "就是对宿主肉体消耗 性使用的过程",
      "居于顶端高枝的是天青石圣巢 的主人",
      "希望能从他们手中搞到一些普通 化外民搞不到的知识",
      "患者往往会在全能干细胞失去分化功能后的 3",
      "最近我总算是和几位丹鼎司的职员混 熟了",
      "相关记述中提及的正是 仙舟舰队启航的理由",
      "那些不能公开发行的医书和 药典",
      "阿毅他们全都被钉在了那东西 的枝条上",
      "造翼者们能进行高速俯冲 与爆发力惊人的突击",
      "仪器会观测到某种高能电磁 波反应",
      "但总归希望在自己短暂的生命 周期中能永远保持活力",
      "但它们依然能够使得狐人直到死去之前都维持 着年轻时的容颜",
      "却依然没办法让他们给我看看 那些不能公开发行的医书和药典",
      "另一方面他们的能源供给和武器制造却极 度依赖掠夺",
      "愿意分享给我一些对他们而言价值不大的 医学报告"
    ]
  }
}